// Auto-generated from tc_resnet8_int8.tflite
// Do NOT edit manually.

#include "model_data.h"

const unsigned char g_kws_model_data[] = {
    0x1c, 0x00, 0x00, 0x00, 0x54, 0x46, 0x4c, 0x33, 0x14, 0x00, 0x20, 0x00, 0x1c, 0x00, 0x18, 0x00, 
    0x14, 0x00, 0x10, 0x00, 0x0c, 0x00, 0x00, 0x00, 0x08, 0x00, 0x04, 0x00, 0x14, 0x00, 0x00, 0x00, 
    0x1c, 0x00, 0x00, 0x00, 0x98, 0x00, 0x00, 0x00, 0xf0, 0x00, 0x00, 0x00, 0xd0, 0x11, 0x00, 0x00, 
    0xe0, 0x11, 0x00, 0x00, 0xa4, 0x2c, 0x00, 0x00, 0x03, 0x00, 0x00, 0x00, 0x01, 0x00, 0x00, 0x00, 
    0x10, 0x00, 0x00, 0x00, 0x00, 0x00, 0x0a, 0x00, 0x10, 0x00, 0x0c, 0x00, 0x08, 0x00, 0x04, 0x00, 
    0x0a, 0x00, 0x00, 0x00, 0x0c, 0x00, 0x00, 0x00, 0x1c, 0x00, 0x00, 0x00, 0x3c, 0x00, 0x00, 0x00, 
    0x0f, 0x00, 0x00, 0x00, 0x73, 0x65, 0x72, 0x76, 0x69, 0x6e, 0x67, 0x5f, 0x64, 0x65, 0x66, 0x61, 
    0x75, 0x6c, 0x74, 0x00, 0x01, 0x00, 0x00, 0x00, 0x04, 0x00, 0x00, 0x00, 0x90, 0xff, 0xff, 0xff, 
    0x1e, 0x00, 0x00, 0x00, 0x04, 0x00, 0x00, 0x00, 0x08, 0x00, 0x00, 0x00, 0x6f, 0x75, 0x74, 0x70, 
    0x75, 0x74, 0x5f, 0x30, 0x00, 0x00, 0x00, 0x00, 0x01, 0x00, 0x00, 0x00, 0x04, 0x00, 0x00, 0x00, 
    0x02, 0xee, 0xff, 0xff, 0x04, 0x00, 0x00, 0x00, 0x0c, 0x00, 0x00, 0x00, 0x6b, 0x65, 0x72, 0x61, 
    0x73, 0x5f, 0x74, 0x65, 0x6e, 0x73, 0x6f, 0x72, 0x00, 0x00, 0x00, 0x00, 0x02, 0x00, 0x00, 0x00, 
    0x34, 0x00, 0x00, 0x00, 0x04, 0x00, 0x00, 0x00, 0xdc, 0xff, 0xff, 0xff, 0x21, 0x00, 0x00, 0x00, 
    0x04, 0x00, 0x00, 0x00, 0x13, 0x00, 0x00, 0x00, 0x43, 0x4f, 0x4e, 0x56, 0x45, 0x52, 0x53, 0x49, 
    0x4f, 0x4e, 0x5f, 0x4d, 0x45, 0x54, 0x41, 0x44, 0x41, 0x54, 0x41, 0x00, 0x08, 0x00, 0x0c, 0x00, 
    0x08, 0x00, 0x04, 0x00, 0x08, 0x00, 0x00, 0x00, 0x20, 0x00, 0x00, 0x00, 0x04, 0x00, 0x00, 0x00, 
    0x13, 0x00, 0x00, 0x00, 0x6d, 0x69, 0x6e, 0x5f, 0x72, 0x75, 0x6e, 0x74, 0x69, 0x6d, 0x65, 0x5f, 
    0x76, 0x65, 0x72, 0x73, 0x69, 0x6f, 0x6e, 0x00, 0x22, 0x00, 0x00, 0x00, 0xdc, 0x10, 0x00, 0x00, 
    0xd4, 0x10, 0x00, 0x00, 0xbc, 0x10, 0x00, 0x00, 0xa4, 0x10, 0x00, 0x00, 0x84, 0x10, 0x00, 0x00, 
    0x54, 0x10, 0x00, 0x00, 0x04, 0x0e, 0x00, 0x00, 0xd4, 0x0d, 0x00, 0x00, 0x84, 0x0b, 0x00, 0x00, 
    0x54, 0x0b, 0x00, 0x00, 0x04, 0x09, 0x00, 0x00, 0xd4, 0x08, 0x00, 0x00, 0x84, 0x06, 0x00, 0x00, 
    0x54, 0x06, 0x00, 0x00, 0x04, 0x04, 0x00, 0x00, 0xd4, 0x03, 0x00, 0x00, 0x84, 0x01, 0x00, 0x00, 
    0x54, 0x01, 0x00, 0x00, 0xfc, 0x00, 0x00, 0x00, 0xf4, 0x00, 0x00, 0x00, 0xec, 0x00, 0x00, 0x00, 
    0xe4, 0x00, 0x00, 0x00, 0xdc, 0x00, 0x00, 0x00, 0xd4, 0x00, 0x00, 0x00, 0xcc, 0x00, 0x00, 0x00, 
    0xc4, 0x00, 0x00, 0x00, 0xbc, 0x00, 0x00, 0x00, 0xb4, 0x00, 0x00, 0x00, 0xac, 0x00, 0x00, 0x00, 
    0xa4, 0x00, 0x00, 0x00, 0x9c, 0x00, 0x00, 0x00, 0x94, 0x00, 0x00, 0x00, 0x74, 0x00, 0x00, 0x00, 
    0x04, 0x00, 0x00, 0x00, 0x06, 0xef, 0xff, 0xff, 0x04, 0x00, 0x00, 0x00, 0x60, 0x00, 0x00, 0x00, 
    0x0c, 0x00, 0x00, 0x00, 0x08, 0x00, 0x0e, 0x00, 0x08, 0x00, 0x04, 0x00, 0x08, 0x00, 0x00, 0x00, 
    0x10, 0x00, 0x00, 0x00, 0x28, 0x00, 0x00, 0x00, 0x00, 0x00, 0x06, 0x00, 0x08, 0x00, 0x04, 0x00, 
    0x06, 0x00, 0x00, 0x00, 0x04, 0x00, 0x00, 0x00, 0x01, 0x00, 0x00, 0x00, 0xeb, 0x03, 0x00, 0x00, 
    0x0c, 0x00, 0x18, 0x00, 0x14, 0x00, 0x10, 0x00, 0x0c, 0x00, 0x04, 0x00, 0x0c, 0x00, 0x00, 0x00, 
    0xaf, 0xd1, 0xb1, 0xa3, 0x52, 0x3f, 0xd9, 0x82, 0x02, 0x00, 0x00, 0x00, 0x02, 0x00, 0x00, 0x00, 
    0x04, 0x00, 0x00, 0x00, 0x06, 0x00, 0x00, 0x00, 0x32, 0x2e, 0x32, 0x30, 0x2e, 0x30, 0x00, 0x00, 
    0x72, 0xef, 0xff, 0xff, 0x04, 0x00, 0x00, 0x00, 0x10, 0x00, 0x00, 0x00, 0x31, 0x2e, 0x31, 0x34, 
    0x2e, 0x30, 0x00, 0x00, 0x00, 0x00, 0x00, 0x00, 0x00, 0x00, 0x00, 0x00, 0x28, 0xd6, 0xff, 0xff, 
    0x2c, 0xd6, 0xff, 0xff, 0x30, 0xd6, 0xff, 0xff, 0x34, 0xd6, 0xff, 0xff, 0x38, 0xd6, 0xff, 0xff, 
    0x3c, 0xd6, 0xff, 0xff, 0x40, 0xd6, 0xff, 0xff, 0x44, 0xd6, 0xff, 0xff, 0x48, 0xd6, 0xff, 0xff, 
    0x4c, 0xd6, 0xff, 0xff, 0x50, 0xd6, 0xff, 0xff, 0x54, 0xd6, 0xff, 0xff, 0x58, 0xd6, 0xff, 0xff, 
    0xc2, 0xef, 0xff, 0xff, 0x04, 0x00, 0x00, 0x00, 0x48, 0x00, 0x00, 0x00, 0x54, 0x81, 0x02, 0xd3, 
    0xc1, 0x90, 0x00, 0x74, 0xed, 0xa4, 0x2f, 0xa6, 0x93, 0x04, 0x85, 0x81, 0xfe, 0x1e, 0xb4, 0x4f, 
    0xce, 0xd3, 0x90, 0x81, 0x09, 0x07, 0x8b, 0xe8, 0x2f, 0xc9, 0xe3, 0x34, 0xcf, 0xdb, 0x7f, 0x14, 
    0xbe, 0xf8, 0xe3, 0x31, 0x08, 0x9b, 0x7f, 0xdf, 0xd4, 0x7f, 0x3e, 0xfe, 0xbe, 0xcc, 0xda, 0x61, 
    0x35, 0x2a, 0x3d, 0x55, 0x12, 0xd0, 0xd2, 0x7f, 0x25, 0xd7, 0x24, 0xe3, 0x4c, 0xbf, 0xfa, 0xc7, 
    0xc0, 0x81, 0xb3, 0x88, 0x16, 0xf0, 0xff, 0xff, 0x04, 0x00, 0x00, 0x00, 0x20, 0x00, 0x00, 0x00, 
    0xba, 0xfe, 0xff, 0xff, 0x1c, 0x02, 0x00, 0x00, 0xe2, 0x04, 0x00, 0x00, 0xfb, 0x00, 0x00, 0x00, 
    0xc1, 0xfe, 0xff, 0xff, 0x1e, 0x01, 0x00, 0x00, 0xba, 0xff, 0xff, 0xff, 0x0a, 0xfe, 0xff, 0xff, 
    0x42, 0xf0, 0xff, 0xff, 0x04, 0x00, 0x00, 0x00, 0x40, 0x02, 0x00, 0x00, 0x20, 0xe2, 0xde, 0xa3, 
    0xa2, 0x7f, 0xe9, 0xe0, 0x26, 0xf6, 0x38, 0x02, 0xef, 0xee, 0x28, 0xdb, 0x36, 0xd1, 0x31, 0xf3, 
    0xc0, 0xc7, 0x96, 0x4d, 0xc1, 0x24, 0x4e, 0xfa, 0x32, 0x68, 0xed, 0x14, 0xdf, 0x3a, 0x51, 0xfb, 
    0x6e, 0x1f, 0xb7, 0x45, 0xab, 0x12, 0x98, 0x3d, 0xe7, 0x93, 0xa6, 0x1f, 0x37, 0x2c, 0x10, 0xba, 
    0x5e, 0x4a, 0x13, 0x46, 0x0f, 0xa1, 0xd5, 0xef, 0x06, 0x2c, 0xf0, 0xb9, 0xab, 0x9e, 0x20, 0xd4, 
    0x13, 0xfc, 0x34, 0xab, 0x05, 0xb0, 0x26, 0x0d, 0xed, 0xb4, 0x0a, 0xee, 0x00, 0xfc, 0x0d, 0x0d, 
    0xf9, 0xef, 0x39, 0xfb, 0x0e, 0x4e, 0x23, 0x5a, 0xf6, 0xef, 0xcf, 0x2d, 0x00, 0xe6, 0xb6, 0xcd, 
    0xd1, 0xb7, 0x48, 0x95, 0x38, 0x14, 0x3c, 0x54, 0x2a, 0x09, 0x31, 0xc6, 0xcb, 0x7f, 0x5d, 0x45, 
    0x90, 0xc6, 0x02, 0x31, 0xeb, 0x8b, 0xbf, 0xf0, 0xfe, 0xfb, 0x21, 0xca, 0x40, 0xd3, 0xce, 0xab, 
    0xf6, 0x25, 0xc7, 0x3a, 0x15, 0x75, 0x6a, 0xcf, 0xbe, 0xc6, 0x9a, 0xf9, 0x1c, 0xfa, 0x3a, 0x14, 
    0x25, 0xb7, 0x27, 0x15, 0x24, 0x10, 0xf6, 0x60, 0x0c, 0xf4, 0x15, 0x22, 0xcd, 0x1a, 0x16, 0x00, 
    0x26, 0x24, 0x32, 0xd6, 0xf1, 0xfa, 0xb6, 0xc5, 0x81, 0x0e, 0xc1, 0x9e, 0xab, 0xe6, 0x36, 0x50, 
    0xb4, 0xaa, 0x03, 0xe6, 0x48, 0xb9, 0xed, 0x3a, 0x60, 0x3f, 0xe7, 0x35, 0x0b, 0x0c, 0x43, 0xd3, 
    0x23, 0xd0, 0x0f, 0xbb, 0x98, 0x31, 0xf5, 0xef, 0xab, 0x2c, 0x34, 0xc1, 0x49, 0x3d, 0xc0, 0xf6, 
    0x52, 0x1f, 0x1a, 0x1b, 0xcb, 0x21, 0xec, 0x3a, 0xaf, 0x91, 0x37, 0xb3, 0xb5, 0x4e, 0xee, 0xe9, 
    0x38, 0xd6, 0xda, 0xd5, 0x3e, 0xe0, 0x9b, 0x2b, 0xd4, 0xcc, 0xb5, 0xbb, 0xc2, 0x6d, 0x7f, 0x4f, 
    0xc6, 0xc0, 0xd5, 0x2c, 0xb0, 0xae, 0xeb, 0x6c, 0x16, 0x1f, 0x00, 0xb3, 0xd2, 0x6d, 0x5d, 0xb7, 
    0xbd, 0x03, 0x97, 0x58, 0x19, 0x4d, 0x51, 0x67, 0xa2, 0x62, 0xe3, 0x5f, 0xf0, 0x2e, 0xbb, 0xec, 
    0xbd, 0xd2, 0xfa, 0x63, 0x35, 0x41, 0x5d, 0x96, 0x74, 0x02, 0x71, 0x4a, 0x1b, 0xd5, 0x34, 0x06, 
    0x02, 0xfe, 0x58, 0xc2, 0x0c, 0x56, 0xb8, 0xc8, 0x21, 0xaa, 0xeb, 0xd1, 0x1a, 0xaf, 0x06, 0x26, 
    0xef, 0xc3, 0x59, 0xa3, 0x00, 0x25, 0x60, 0x29, 0xde, 0xb3, 0x49, 0xf0, 0x22, 0xb7, 0xf0, 0xad, 
    0x57, 0x08, 0xcb, 0xe0, 0xab, 0x04, 0xfc, 0x33, 0xff, 0x35, 0xbe, 0x43, 0x01, 0x00, 0x0c, 0x0a, 
    0x20, 0xa1, 0xec, 0x26, 0xdc, 0x7f, 0x21, 0x60, 0x3b, 0x5e, 0x26, 0xad, 0xa4, 0x71, 0x0b, 0xef, 
    0xad, 0x26, 0xae, 0x51, 0x21, 0x9a, 0x13, 0x54, 0x7a, 0x09, 0xb8, 0x15, 0x12, 0xd2, 0x32, 0xdb, 
    0xe3, 0xb1, 0xcf, 0xce, 0x39, 0xbc, 0xe2, 0x14, 0x0d, 0x95, 0xa6, 0x54, 0xb3, 0x8e, 0x4c, 0xd4, 
    0x1c, 0x52, 0x2b, 0x82, 0xd4, 0x8a, 0xef, 0xe7, 0x04, 0xf5, 0x95, 0x34, 0x5f, 0x0e, 0xef, 0x1b, 
    0xdb, 0x31, 0xfd, 0x43, 0xf8, 0x1d, 0x3f, 0x53, 0x20, 0x19, 0x5b, 0xbe, 0x21, 0xdd, 0xf1, 0xdc, 
    0x7a, 0x1e, 0xb5, 0x28, 0x3c, 0x34, 0x7f, 0xc4, 0x26, 0xc3, 0x86, 0xef, 0x57, 0xd9, 0xe6, 0x48, 
    0x4a, 0xd8, 0xc3, 0x69, 0xec, 0xcf, 0x0f, 0xc0, 0x34, 0x08, 0xde, 0xfc, 0x06, 0x49, 0xbe, 0xd7, 
    0xb0, 0x11, 0xee, 0x20, 0x7f, 0x1c, 0xc6, 0xc7, 0x15, 0x29, 0x3a, 0x18, 0x0f, 0xc9, 0x6a, 0xe8, 
    0xeb, 0x2d, 0x50, 0xea, 0x37, 0x3b, 0x1f, 0xd6, 0x0b, 0x31, 0xb9, 0xe2, 0x4d, 0x4a, 0xe1, 0xe1, 
    0xfc, 0xbe, 0xdb, 0x1a, 0xdb, 0x18, 0xee, 0x00, 0x4c, 0xe9, 0x40, 0x59, 0x10, 0x09, 0xd4, 0xdb, 
    0xe6, 0x38, 0x09, 0x1b, 0x26, 0x3b, 0x4e, 0xa4, 0x2d, 0x3b, 0xe9, 0x6f, 0xea, 0x3a, 0x09, 0x00, 
    0x45, 0x3d, 0x35, 0x15, 0xf3, 0x34, 0xa7, 0x40, 0x2a, 0x3d, 0xad, 0xf0, 0xf0, 0x73, 0xa9, 0x03, 
    0x0a, 0x61, 0xd8, 0xd5, 0x13, 0xf8, 0xae, 0xd4, 0x69, 0x46, 0xb8, 0xc0, 0x31, 0x0b, 0x51, 0x5b, 
    0xb2, 0x9b, 0x14, 0x72, 0x5c, 0x0b, 0x04, 0xf8, 0x13, 0x01, 0x09, 0x4e, 0x68, 0x65, 0xe7, 0xb4, 
    0xc7, 0x23, 0x4c, 0x1c, 0x0a, 0x5f, 0x34, 0x7f, 0xa8, 0xd8, 0x94, 0x0c, 0x8e, 0xf2, 0xff, 0xff, 
    0x04, 0x00, 0x00, 0x00, 0x20, 0x00, 0x00, 0x00, 0x7b, 0xff, 0xff, 0xff, 0x54, 0x07, 0x00, 0x00, 
    0xcf, 0xf7, 0xff, 0xff, 0x69, 0xf5, 0xff, 0xff, 0x6e, 0xfa, 0xff, 0xff, 0x0a, 0xfe, 0xff, 0xff, 
    0x41, 0xea, 0xff, 0xff, 0x48, 0xca, 0xff, 0xff, 0xba, 0xf2, 0xff, 0xff, 0x04, 0x00, 0x00, 0x00, 
    0x40, 0x02, 0x00, 0x00, 0xe6, 0x24, 0x1f, 0xf1, 0x08, 0x1b, 0x0c, 0x8e, 0xaf, 0xc0, 0x09, 0xc8, 
    0x6e, 0x81, 0xe4, 0x17, 0x0f, 0xbe, 0x09, 0xbd, 0x06, 0xe5, 0x2f, 0xdf, 0xa8, 0x72, 0xe5, 0x42, 
    0x7a, 0x25, 0x4f, 0xd2, 0x10, 0x3f, 0x30, 0x1e, 0xf6, 0xab, 0x06, 0xaf, 0x96, 0x1a, 0x04, 0x1b, 
    0xf1, 0x3e, 0xd2, 0xec, 0x0f, 0xe8, 0x1b, 0xaf, 0x10, 0x2b, 0xf6, 0x32, 0xee, 0xfd, 0x33, 0x13, 
    0x03, 0x9d, 0xf3, 0xee, 0x2d, 0x54, 0x07, 0x0f, 0x22, 0xf3, 0x00, 0xcf, 0x8f, 0xae, 0x3c, 0xeb, 
    0x8c, 0x0a, 0x3b, 0x56, 0x09, 0x5e, 0xd7, 0x24, 0x11, 0x05, 0x45, 0xdc, 0xff, 0x11, 0x36, 0xfa, 
    0x1c, 0xf7, 0x7f, 0x84, 0xf1, 0x9f, 0x43, 0xc2, 0x2e, 0x8b, 0xe6, 0xd4, 0x5a, 0x25, 0xb2, 0x15, 
    0x22, 0xa1, 0x50, 0xa5, 0xd6, 0x39, 0x0a, 0x32, 0xe5, 0x4f, 0x13, 0x85, 0xbe, 0xf1, 0xf6, 0xb5, 
    0xfd, 0x11, 0x07, 0xf1, 0xe0, 0xcb, 0x0c, 0xed, 0x1e, 0xff, 0xe2, 0xb4, 0x45, 0x03, 0x57, 0xf0, 
    0x25, 0x2e, 0x6e, 0xb9, 0x7f, 0x14, 0x2e, 0xd5, 0x00, 0xb5, 0x03, 0x0b, 0xd8, 0x2d, 0x57, 0x3d, 
    0x25, 0x26, 0xc4, 0x2b, 0x4d, 0x14, 0x3c, 0x0a, 0x09, 0x1e, 0x20, 0xfa, 0x5a, 0x1b, 0x37, 0xc8, 
    0xf6, 0x42, 0xdf, 0xdb, 0x3d, 0xe7, 0x44, 0x22, 0x23, 0x0a, 0x2b, 0x2f, 0xff, 0xe3, 0xa9, 0x39, 
    0xe8, 0x4b, 0xe5, 0xb8, 0x19, 0xa6, 0xe0, 0x70, 0xb7, 0x22, 0x91, 0xfe, 0xff, 0xf4, 0x4f, 0x70, 
    0x29, 0xcc, 0xb7, 0x3f, 0xc2, 0x38, 0x5a, 0x14, 0x53, 0xc9, 0xfb, 0xe4, 0xf9, 0x72, 0xcc, 0xa2, 
    0x2e, 0x96, 0x2e, 0xb6, 0x06, 0xd8, 0x9e, 0xf9, 0xc5, 0x98, 0xe5, 0x55, 0x15, 0xf8, 0x2d, 0xca, 
    0x7f, 0x50, 0x05, 0xab, 0x12, 0x42, 0xaf, 0x1d, 0xca, 0x9f, 0xe9, 0x98, 0x25, 0xc4, 0xe0, 0xf0, 
    0x38, 0x15, 0xc2, 0x30, 0x0e, 0x36, 0x38, 0xf9, 0xd3, 0xed, 0x38, 0xd5, 0x29, 0x7e, 0x20, 0xa6, 
    0x54, 0xb3, 0x07, 0xe2, 0xdb, 0xb3, 0xe1, 0xb7, 0x3a, 0x47, 0xe9, 0xf3, 0xd6, 0xaf, 0xb4, 0x2c, 
    0x50, 0x33, 0x38, 0xc0, 0x25, 0xcb, 0xd5, 0x81, 0xe9, 0x2c, 0xaa, 0x4b, 0x05, 0x32, 0xd1, 0x4d, 
    0x23, 0xda, 0x39, 0xf3, 0x2a, 0x39, 0x16, 0xb4, 0xe8, 0x27, 0x3a, 0xac, 0x4d, 0xcb, 0xaa, 0xb7, 
    0x31, 0x23, 0xb4, 0x47, 0x9e, 0x0c, 0x26, 0xc1, 0x6a, 0x39, 0xcf, 0x09, 0xa8, 0x0c, 0xe2, 0x34, 
    0x5d, 0x45, 0xe7, 0x18, 0x3d, 0xae, 0x49, 0xb5, 0x0e, 0x33, 0x2b, 0xd8, 0xd2, 0xc9, 0xeb, 0x37, 
    0x55, 0xcd, 0x06, 0xa4, 0x3f, 0xb6, 0x65, 0x0c, 0x6a, 0xd6, 0xcd, 0xf6, 0xfe, 0x4c, 0x4f, 0x2f, 
    0xb4, 0x36, 0xa8, 0x1f, 0xd5, 0x39, 0xe5, 0x17, 0x9a, 0x13, 0xb9, 0x20, 0xe6, 0xeb, 0xc9, 0x15, 
    0xfa, 0xfa, 0x16, 0x34, 0x37, 0xc2, 0x5e, 0xe2, 0x30, 0x5d, 0xb8, 0xee, 0xfe, 0x16, 0xe6, 0xf3, 
    0xe0, 0x2e, 0x2e, 0xe9, 0x7f, 0x5b, 0xe1, 0x34, 0xab, 0xe1, 0xdb, 0x0e, 0x30, 0x2a, 0xef, 0x19, 
    0xad, 0x4c, 0x26, 0xd6, 0xc3, 0x30, 0x48, 0xc8, 0xdb, 0x27, 0xda, 0xe4, 0x46, 0xe6, 0x2b, 0x31, 
    0xcf, 0x45, 0x46, 0xe2, 0xaa, 0x9c, 0x53, 0xbf, 0x46, 0xf9, 0x40, 0xcb, 0x12, 0x09, 0xd8, 0xc6, 
    0x1e, 0x29, 0xef, 0x2d, 0xbc, 0x7f, 0xee, 0x0c, 0x3c, 0x03, 0xf2, 0x4d, 0xb7, 0x0a, 0xb8, 0xef, 
    0x47, 0x25, 0x6a, 0xce, 0xd6, 0xe1, 0x23, 0xe4, 0x15, 0xbc, 0xbb, 0xa2, 0x32, 0xbe, 0x8c, 0xe1, 
    0xce, 0x41, 0x1f, 0xcd, 0xd2, 0xa4, 0x96, 0xce, 0xd5, 0xe6, 0x3e, 0x2e, 0xd8, 0x67, 0xde, 0xdd, 
    0x3a, 0x44, 0xe6, 0x49, 0x14, 0xd9, 0xe9, 0x9f, 0x1a, 0x6f, 0x21, 0x56, 0xaa, 0x9b, 0x35, 0xe2, 
    0x4e, 0xdb, 0xe5, 0x92, 0xef, 0x0c, 0xe1, 0x13, 0xdd, 0xc9, 0xe8, 0xd7, 0x0f, 0x27, 0x25, 0xed, 
    0x0e, 0x0d, 0xef, 0x99, 0xa6, 0x13, 0x04, 0x0f, 0xe5, 0xb7, 0x19, 0xdd, 0x46, 0x14, 0x1b, 0xf6, 
    0x07, 0xb8, 0x32, 0xb7, 0xea, 0xfb, 0xc6, 0x1f, 0xfb, 0xda, 0x7f, 0x16, 0xd9, 0x0f, 0xc0, 0xdf, 
    0x4e, 0x12, 0xc1, 0xe2, 0xd4, 0x40, 0xbc, 0xe2, 0x38, 0xdb, 0x2b, 0x20, 0x1f, 0xb8, 0xeb, 0xdd, 
    0xd9, 0xeb, 0x05, 0xb9, 0x06, 0xf5, 0xff, 0xff, 0x04, 0x00, 0x00, 0x00, 0x20, 0x00, 0x00, 0x00, 
    0x68, 0x05, 0x00, 0x00, 0xcd, 0x06, 0x00, 0x00, 0xf4, 0xe0, 0xff, 0xff, 0x14, 0x15, 0x00, 0x00, 
    0x24, 0xfe, 0xff, 0xff, 0x20, 0xf9, 0xff, 0xff, 0x9d, 0x03, 0x00, 0x00, 0xd6, 0x22, 0x00, 0x00, 
    0x32, 0xf5, 0xff, 0xff, 0x04, 0x00, 0x00, 0x00, 0x40, 0x02, 0x00, 0x00, 0x26, 0x2e, 0xe1, 0x43, 
    0xe4, 0x59, 0x3d, 0x7f, 0x17, 0xe6, 0x05, 0x61, 0xda, 0xa9, 0x00, 0xe5, 0x39, 0x7c, 0x59, 0xca, 
    0xa9, 0xfd, 0x4b, 0x53, 0xcc, 0x5b, 0x4b, 0x18, 0x08, 0xe0, 0x1e, 0xfe, 0x39, 0x60, 0xaa, 0x43, 
    0xd4, 0xbc, 0xd9, 0xdc, 0x39, 0x53, 0x41, 0x0c, 0x4f, 0x96, 0xbf, 0x11, 0x1b, 0x4f, 0x8f, 0xeb, 
    0x11, 0x10, 0x30, 0x02, 0xc6, 0xe5, 0xf1, 0x49, 0xd3, 0x40, 0xc1, 0x54, 0xf5, 0x4a, 0x49, 0x59, 
    0x5e, 0xe8, 0x36, 0xb5, 0xba, 0x23, 0xc3, 0x3c, 0xec, 0xb0, 0xc7, 0x20, 0x54, 0x25, 0xbd, 0x43, 
    0xab, 0x53, 0xc6, 0x3e, 0x9b, 0x8f, 0xcd, 0xa8, 0xac, 0x18, 0x39, 0x6e, 0x48, 0x34, 0xcf, 0x7f, 
    0x3b, 0xf4, 0x10, 0x19, 0xc0, 0x85, 0x09, 0x1b, 0xa6, 0xb1, 0xba, 0x2f, 0xc1, 0x12, 0x0b, 0xee, 
    0x28, 0xe7, 0x37, 0xdb, 0x61, 0xb6, 0xf3, 0x77, 0x23, 0x41, 0xeb, 0x99, 0x46, 0x20, 0x9d, 0xf6, 
    0xa0, 0xe6, 0x42, 0xe3, 0xdf, 0x2b, 0xfb, 0xfd, 0xd1, 0xf9, 0xf5, 0xdb, 0x83, 0x55, 0x01, 0x2e, 
    0x37, 0x8e, 0xf8, 0x21, 0x99, 0xa2, 0xe9, 0x41, 0x3f, 0xbc, 0xaf, 0xf1, 0x32, 0x20, 0x08, 0x1f, 
    0xcb, 0x07, 0xd2, 0xfb, 0xd0, 0x65, 0xb6, 0xff, 0xcc, 0x0e, 0x9f, 0x3a, 0x07, 0xb7, 0xd6, 0x49, 
    0x00, 0xfa, 0xdb, 0x64, 0xf7, 0x44, 0x0b, 0x29, 0x04, 0xd5, 0xd6, 0xe7, 0xfb, 0x51, 0xe4, 0x32, 
    0x11, 0x0c, 0xf9, 0x5a, 0xdd, 0x03, 0x1a, 0xce, 0x42, 0x81, 0xdf, 0x25, 0xbc, 0x16, 0x1a, 0xe3, 
    0xf6, 0xaf, 0x39, 0xfd, 0x7f, 0x5e, 0xcb, 0x35, 0x3e, 0xd7, 0x47, 0x48, 0xc4, 0x65, 0x3c, 0x01, 
    0xef, 0x18, 0x29, 0x5e, 0x11, 0x2a, 0xf0, 0xc7, 0xcd, 0x1b, 0x0a, 0xb8, 0xe6, 0x0e, 0xdb, 0x3a, 
    0xad, 0x18, 0x1e, 0xef, 0xf2, 0x5f, 0x05, 0x08, 0xea, 0x9a, 0x1b, 0x0c, 0x44, 0x2f, 0x3d, 0xe7, 
    0xb1, 0xce, 0xf9, 0xd7, 0xdb, 0xe0, 0xb1, 0x4e, 0x29, 0x25, 0xfe, 0x44, 0x0c, 0x3a, 0x07, 0x30, 
    0xbe, 0x04, 0x52, 0x3b, 0xd1, 0x46, 0x3a, 0xf0, 0x17, 0x06, 0xdb, 0xb3, 0x7f, 0xf7, 0xf4, 0x10, 
    0xe8, 0xd6, 0x4c, 0x1a, 0x51, 0x2a, 0xdf, 0x39, 0x02, 0xd8, 0xcf, 0x43, 0x03, 0x18, 0x43, 0x41, 
    0x33, 0xbe, 0xfc, 0xed, 0x0c, 0x6c, 0x2a, 0x2c, 0xf0, 0xfd, 0x60, 0x28, 0xcd, 0x57, 0x2f, 0x2e, 
    0x11, 0xda, 0xe9, 0x47, 0xd2, 0x5c, 0xdf, 0xf5, 0xce, 0x24, 0x39, 0x37, 0xed, 0x67, 0xd6, 0x2b, 
    0xd3, 0x0f, 0x20, 0x75, 0xf7, 0x4a, 0xe9, 0x0e, 0xea, 0x11, 0x28, 0x06, 0xc5, 0x12, 0x29, 0x72, 
    0x09, 0xc3, 0xf2, 0x2d, 0x26, 0xd6, 0xaf, 0x09, 0x74, 0x45, 0x5c, 0x35, 0x79, 0xc8, 0xc7, 0xf3, 
    0x0b, 0x32, 0xf7, 0x0e, 0x3f, 0x9b, 0x26, 0x53, 0xfd, 0xbe, 0xf1, 0xdc, 0x68, 0x46, 0xac, 0x74, 
    0x28, 0x31, 0x7f, 0x69, 0x4b, 0xa0, 0x5d, 0x60, 0xd4, 0xda, 0xd5, 0x1b, 0x89, 0x05, 0xe3, 0xa6, 
    0x55, 0xf0, 0x65, 0x43, 0x05, 0xee, 0xaf, 0xbb, 0x70, 0x47, 0x69, 0x13, 0x39, 0xd2, 0xdd, 0x2a, 
    0xa7, 0x44, 0xed, 0xfb, 0xc2, 0x43, 0xb2, 0x62, 0x55, 0xfc, 0x2c, 0x53, 0xb6, 0x00, 0x17, 0x0d, 
    0xf4, 0x2c, 0xd9, 0x38, 0xfb, 0x21, 0xdb, 0x92, 0xd9, 0xf0, 0x14, 0xf0, 0xb9, 0x27, 0x2d, 0xed, 
    0x0d, 0x01, 0xbe, 0xbf, 0xba, 0x12, 0x0e, 0x21, 0xc7, 0x4c, 0x05, 0x07, 0xf8, 0xe1, 0xa7, 0x9b, 
    0xc3, 0xf8, 0x1e, 0xfb, 0x09, 0xd8, 0x3c, 0xd6, 0x02, 0x43, 0x08, 0x81, 0xc9, 0xe1, 0x03, 0xd8, 
    0xfc, 0x3b, 0x09, 0x0f, 0x0f, 0xfd, 0xfe, 0x0e, 0x04, 0x18, 0xf1, 0xda, 0x25, 0xf4, 0xef, 0xe3, 
    0x09, 0xd7, 0x39, 0x88, 0xf2, 0x07, 0xf6, 0x0c, 0xeb, 0x30, 0x79, 0x39, 0xc5, 0x3d, 0x07, 0x2e, 
    0xd4, 0x24, 0x1d, 0x3d, 0x03, 0xdd, 0x0f, 0x48, 0x25, 0x22, 0x7f, 0x53, 0x04, 0x02, 0x3c, 0x4a, 
    0xef, 0x2d, 0x5e, 0xe9, 0x15, 0xc9, 0xd6, 0xaa, 0xbb, 0x1a, 0x06, 0x0f, 0x0b, 0xa8, 0x4d, 0x16, 
    0x29, 0x51, 0x19, 0x2f, 0xc3, 0xbc, 0x3c, 0xe7, 0x42, 0x47, 0x4c, 0x3b, 0xed, 0xcf, 0x1e, 0x29, 
    0xb8, 0xba, 0x60, 0xb9, 0x9e, 0x04, 0x4e, 0xa0, 0x33, 0xcd, 0x65, 0x13, 0x7e, 0xf7, 0xff, 0xff, 
    0x04, 0x00, 0x00, 0x00, 0x20, 0x00, 0x00, 0x00, 0x53, 0xbc, 0xff, 0xff, 0x0c, 0x26, 0x00, 0x00, 
    0x35, 0x1c, 0x00, 0x00, 0x29, 0xd7, 0xff, 0xff, 0xc9, 0xb7, 0xff, 0xff, 0xfa, 0xbf, 0xff, 0xff, 
    0x72, 0x23, 0x00, 0x00, 0x11, 0xb4, 0xff, 0xff, 0xaa, 0xf7, 0xff, 0xff, 0x04, 0x00, 0x00, 0x00, 
    0x40, 0x02, 0x00, 0x00, 0xf7, 0xdc, 0x01, 0x5a, 0x7d, 0x40, 0xa0, 0x67, 0xcf, 0xe8, 0x4a, 0xb0, 
    0x36, 0xe9, 0xc6, 0x0f, 0x60, 0x84, 0xf2, 0x58, 0x79, 0x21, 0xe6, 0xff, 0x3f, 0xdc, 0xfc, 0x0c, 
    0x28, 0x50, 0xae, 0xd3, 0x34, 0x9e, 0x04, 0xf3, 0x47, 0x64, 0x2d, 0x1f, 0x15, 0xd4, 0xc8, 0x40, 
    0x2d, 0xcf, 0x4f, 0x00, 0x40, 0xdb, 0x4f, 0x65, 0x6a, 0x7f, 0x2d, 0x40, 0x47, 0xbc, 0x20, 0xcf, 
    0x32, 0x1e, 0x17, 0xc8, 0x60, 0xa0, 0x74, 0xfa, 0xfe, 0x26, 0x0a, 0xe0, 0x0c, 0xf2, 0x46, 0x12, 
    0x47, 0x13, 0xf1, 0xd9, 0x11, 0xd0, 0x31, 0xdf, 0x46, 0x34, 0xd0, 0x3f, 0x4c, 0xf1, 0xd3, 0xef, 
    0x51, 0x0e, 0xc4, 0x3e, 0xfb, 0xdb, 0x2c, 0x38, 0x1b, 0x4e, 0x09, 0xfa, 0x20, 0xd7, 0xf9, 0x1d, 
    0x45, 0x24, 0x2b, 0xd9, 0x32, 0x81, 0x1f, 0x1d, 0x1c, 0xed, 0xd2, 0x0e, 0x09, 0xda, 0x02, 0xf8, 
    0x1d, 0x2f, 0xec, 0x4d, 0x1e, 0xcf, 0x0f, 0x2d, 0x11, 0x35, 0xf1, 0xd1, 0xf7, 0xa2, 0xf8, 0x01, 
    0x67, 0xff, 0xc4, 0x40, 0xce, 0x27, 0xff, 0x03, 0x92, 0x2a, 0x24, 0xa8, 0x11, 0x11, 0x08, 0xef, 
    0xdc, 0xf0, 0x4f, 0xed, 0x2d, 0x5a, 0xba, 0xea, 0xc2, 0xa6, 0xda, 0x20, 0xd0, 0xea, 0xa8, 0xc7, 
    0x81, 0xd5, 0x1c, 0xa7, 0x1a, 0xc4, 0xd4, 0x33, 0xe5, 0xaa, 0x30, 0x9e, 0xfe, 0xf7, 0xb3, 0x3e, 
    0xf3, 0xd7, 0x51, 0xff, 0x4f, 0x97, 0x18, 0xc0, 0xf1, 0xc0, 0x04, 0xc6, 0x10, 0xc8, 0xb7, 0xf8, 
    0xc2, 0x10, 0x3a, 0xd3, 0xf3, 0x0e, 0xd3, 0xeb, 0xa4, 0x14, 0x0c, 0x08, 0x2b, 0x2c, 0xeb, 0xcb, 
    0xab, 0xd2, 0xf6, 0xc6, 0x35, 0xf7, 0xf8, 0xd8, 0x21, 0xef, 0xf3, 0x1b, 0x55, 0xf4, 0xec, 0xea, 
    0xd4, 0xe0, 0xfa, 0xd2, 0x21, 0xfe, 0xb9, 0xfa, 0xc5, 0x25, 0x0e, 0xf2, 0xfe, 0xff, 0x20, 0xf7, 
    0x15, 0x0b, 0xff, 0x24, 0x57, 0x04, 0x02, 0x3e, 0xd2, 0xbb, 0x01, 0x3f, 0x0b, 0x06, 0x81, 0xb5, 
    0xad, 0xd0, 0xd4, 0x22, 0x0b, 0x02, 0xa2, 0x3e, 0xf5, 0xa3, 0xb1, 0x3e, 0xe5, 0x0f, 0xe8, 0x13, 
    0xac, 0xe8, 0xb5, 0x27, 0x3d, 0xd3, 0x07, 0xeb, 0x6e, 0xf9, 0xc4, 0x18, 0x3f, 0xaa, 0x0c, 0xf2, 
    0x4a, 0x23, 0x0d, 0xfa, 0x29, 0xb1, 0xd9, 0x20, 0x76, 0x0a, 0x03, 0x3f, 0xed, 0x20, 0xce, 0x3b, 
    0x55, 0x26, 0xff, 0x41, 0xcb, 0xc8, 0x24, 0x11, 0x0a, 0x38, 0x5c, 0x20, 0x5c, 0xd1, 0x3b, 0x34, 
    0x22, 0x04, 0x12, 0xc1, 0x4c, 0xd6, 0x20, 0x4f, 0x11, 0x11, 0xd8, 0xdb, 0x56, 0x0a, 0x40, 0x1b, 
    0x5d, 0x5f, 0xf3, 0xf0, 0x0a, 0x81, 0x54, 0x40, 0x1b, 0x3b, 0xc6, 0xf3, 0x29, 0xc7, 0xc2, 0xc0, 
    0xb3, 0xd2, 0xfd, 0xea, 0x17, 0x5e, 0x0f, 0xe8, 0xcf, 0xd2, 0xaa, 0x3e, 0x1a, 0x2c, 0xfb, 0x12, 
    0xb5, 0x15, 0x09, 0x0b, 0x55, 0x0c, 0xc1, 0xff, 0xb6, 0xd6, 0xa9, 0x47, 0x21, 0xe9, 0x28, 0x1a, 
    0x1a, 0xfa, 0x29, 0xc6, 0x26, 0x1b, 0x2a, 0x7f, 0xb2, 0xd3, 0x03, 0xa0, 0xf9, 0xc4, 0x86, 0xc5, 
    0xd8, 0xf7, 0xeb, 0xc9, 0x07, 0xe5, 0xff, 0x4b, 0xae, 0xe7, 0xe3, 0x49, 0x10, 0x2d, 0x9e, 0x03, 
    0xb2, 0xc6, 0x34, 0x16, 0x29, 0xe7, 0x05, 0x54, 0x2a, 0x2f, 0x13, 0xc2, 0xf8, 0xe7, 0x24, 0x1a, 
    0x3f, 0x49, 0x06, 0x16, 0x18, 0x00, 0x0d, 0x0e, 0x72, 0x17, 0x17, 0x13, 0x03, 0xde, 0xc5, 0x05, 
    0x1e, 0x4c, 0xce, 0x19, 0x12, 0xb7, 0x4f, 0x28, 0xeb, 0xfd, 0xa4, 0xf2, 0xf1, 0x81, 0x3f, 0x41, 
    0x2f, 0xf4, 0xde, 0x11, 0x32, 0xd8, 0xea, 0xef, 0x51, 0x14, 0x2b, 0x20, 0x4e, 0xbb, 0xd9, 0xd3, 
    0x0f, 0xfa, 0x22, 0xe5, 0x2c, 0xce, 0x13, 0xdb, 0x6a, 0x0c, 0x30, 0xbf, 0x51, 0x11, 0xd9, 0xea, 
    0x3d, 0x0b, 0xb4, 0x0f, 0x44, 0xd3, 0x2c, 0xc9, 0x4a, 0x1c, 0xb2, 0x36, 0x4a, 0xc5, 0x10, 0x57, 
    0x2c, 0x4f, 0x23, 0x14, 0x25, 0xba, 0xff, 0x08, 0x4e, 0x51, 0xd6, 0x29, 0x44, 0xa5, 0x29, 0x2e, 
    0x3a, 0x0c, 0x0b, 0xc7, 0xe9, 0x8a, 0x1c, 0xde, 0x3a, 0xcf, 0x01, 0x34, 0xe8, 0xcd, 0x35, 0xef, 
    0x7f, 0x02, 0xf1, 0x4c, 0x14, 0xf7, 0x0b, 0xe9, 0x04, 0x59, 0x3e, 0xd9, 0xff, 0x9d, 0xf2, 0xe8, 
    0x44, 0x49, 0x08, 0xe5, 0xf6, 0xf9, 0xff, 0xff, 0x04, 0x00, 0x00, 0x00, 0x20, 0x00, 0x00, 0x00, 
    0xb2, 0xc5, 0xff, 0xff, 0xde, 0xde, 0xff, 0xff, 0xc1, 0x53, 0x00, 0x00, 0x66, 0x35, 0x00, 0x00, 
    0x3e, 0xc3, 0xff, 0xff, 0xaa, 0x33, 0x00, 0x00, 0xd4, 0xe1, 0xff, 0xff, 0x7f, 0xda, 0xff, 0xff, 
    0x22, 0xfa, 0xff, 0xff, 0x04, 0x00, 0x00, 0x00, 0x40, 0x02, 0x00, 0x00, 0xc0, 0xa5, 0x52, 0x05, 
    0xb8, 0x72, 0xed, 0x0c, 0xb0, 0x3a, 0x52, 0xfc, 0xa9, 0x5e, 0xaf, 0x1a, 0xe5, 0xf0, 0xf2, 0x30, 
    0x08, 0xf7, 0xfc, 0x05, 0xf6, 0x4b, 0x38, 0x39, 0x63, 0x46, 0xe3, 0xef, 0x4b, 0xf6, 0xe1, 0x0c, 
    0x50, 0x12, 0x28, 0xae, 0xc0, 0xd6, 0x3a, 0x55, 0xbf, 0x76, 0x4d, 0x81, 0x25, 0x61, 0xba, 0x0f, 
    0x24, 0x9a, 0x38, 0x1b, 0x3f, 0x10, 0x5e, 0xa8, 0x40, 0x0b, 0x4b, 0x49, 0x2a, 0x40, 0x09, 0xb5, 
    0x7a, 0xc0, 0x28, 0x39, 0x68, 0x4f, 0x02, 0xad, 0x0d, 0xed, 0x0f, 0x26, 0xcf, 0xf2, 0x42, 0x5f, 
    0x2b, 0x17, 0xc8, 0x31, 0xea, 0x3a, 0x6e, 0x28, 0xd6, 0xde, 0x42, 0x2c, 0x24, 0x15, 0xd4, 0xaf, 
    0x01, 0xad, 0x4b, 0x1a, 0x81, 0x29, 0xe3, 0x33, 0xbe, 0xe7, 0x1b, 0xaa, 0xf1, 0xdf, 0x37, 0x63, 
    0xbf, 0xeb, 0x33, 0xd1, 0x42, 0x36, 0xf5, 0x20, 0xef, 0xe3, 0x29, 0x4b, 0x35, 0xb8, 0xbe, 0x05, 
    0xf2, 0x4c, 0xfe, 0x38, 0xb9, 0xdf, 0xff, 0xce, 0x0a, 0x2b, 0xbb, 0x88, 0x2d, 0x47, 0x12, 0x07, 
    0x1a, 0xf2, 0xdc, 0xe9, 0xfd, 0x69, 0xc7, 0x33, 0xfe, 0x01, 0xe0, 0x40, 0x0c, 0x1b, 0x06, 0x0e, 
    0x56, 0xaf, 0x50, 0x7f, 0x19, 0xf3, 0xde, 0xbd, 0x15, 0x3d, 0x14, 0x27, 0xc8, 0xce, 0xb4, 0x0f, 
    0x1e, 0x18, 0x43, 0xf3, 0x1d, 0x75, 0xe2, 0x1c, 0xf8, 0xbb, 0x39, 0x40, 0xaf, 0xa8, 0x08, 0xdd, 
    0xc7, 0xe2, 0x34, 0x2e, 0x25, 0x1d, 0xf1, 0x08, 0xfb, 0x1b, 0x23, 0xd4, 0x4e, 0x1b, 0x1a, 0xec, 
    0x4e, 0xc0, 0xf6, 0xde, 0x48, 0xcb, 0x81, 0xfe, 0x16, 0xbe, 0xa7, 0x0c, 0x4d, 0x4e, 0x16, 0xbd, 
    0xbc, 0x8b, 0xfc, 0x2a, 0x0b, 0x5e, 0xd9, 0xa7, 0xc6, 0xb5, 0x3f, 0xcd, 0xa4, 0x49, 0xa4, 0x0e, 
    0x18, 0xe4, 0xd6, 0xdb, 0xde, 0x10, 0x49, 0x42, 0xad, 0xb0, 0xd2, 0xd9, 0x6a, 0xe5, 0xd8, 0x02, 
    0xe5, 0x27, 0x15, 0xb0, 0xd2, 0x19, 0xd1, 0x61, 0x00, 0x1c, 0x2b, 0x2a, 0xd1, 0xd0, 0xe3, 0xfb, 
    0xd5, 0xe3, 0x9a, 0x1f, 0xff, 0xbf, 0x2d, 0xc3, 0xc4, 0x3b, 0xfd, 0xa3, 0x8f, 0x25, 0x30, 0xec, 
    0xda, 0xe9, 0xad, 0x8b, 0x2f, 0x9e, 0x38, 0x52, 0xe0, 0x1a, 0xb8, 0xd1, 0x0a, 0xb4, 0xa1, 0x7f, 
    0xff, 0x0a, 0x14, 0xf5, 0x30, 0xed, 0x8e, 0x6e, 0xdb, 0x3d, 0x0f, 0x2b, 0x12, 0xf5, 0x22, 0x3f, 
    0xbc, 0x1f, 0x58, 0xc9, 0xb8, 0xe8, 0x14, 0x53, 0xf3, 0x68, 0xfd, 0x9c, 0x96, 0xed, 0x20, 0x5c, 
    0x43, 0x33, 0xf8, 0x48, 0x33, 0x41, 0xda, 0xc3, 0xc1, 0x6b, 0x9a, 0x55, 0x31, 0xd5, 0x0f, 0x31, 
    0xe3, 0x66, 0xe8, 0xeb, 0xdd, 0xf9, 0xfb, 0x9c, 0x21, 0xf1, 0x2e, 0x08, 0x32, 0x2b, 0xc7, 0xef, 
    0x38, 0xd0, 0x47, 0x34, 0xbc, 0x29, 0x46, 0x29, 0x23, 0x2a, 0xe5, 0xdc, 0x50, 0xe2, 0x3f, 0x2c, 
    0x17, 0x91, 0xf3, 0x01, 0xf5, 0xfc, 0xe8, 0xe1, 0xcb, 0xcd, 0x41, 0xd5, 0x0a, 0xfa, 0x3e, 0x15, 
    0x45, 0xe7, 0x1f, 0x41, 0x7f, 0x04, 0x06, 0xb8, 0x0b, 0xc1, 0x2e, 0xe0, 0xf3, 0x21, 0xad, 0x2d, 
    0xd7, 0xd1, 0x4b, 0x51, 0x62, 0x4c, 0xe8, 0x13, 0x6f, 0xd3, 0x15, 0x2f, 0xbc, 0xfc, 0xf7, 0x32, 
    0x0c, 0x42, 0xbb, 0x1c, 0x29, 0xe2, 0xff, 0x2b, 0x25, 0x23, 0x19, 0x0e, 0x03, 0x09, 0x09, 0x0b, 
    0x36, 0x30, 0xde, 0x07, 0xb7, 0xd5, 0x05, 0x0e, 0x11, 0x14, 0x37, 0x28, 0xdc, 0xf3, 0xd5, 0x2f, 
    0xff, 0xf6, 0xe9, 0xdb, 0xe4, 0x31, 0xed, 0xfc, 0x0c, 0x2a, 0xcf, 0xc0, 0xe8, 0x22, 0xdf, 0x7f, 
    0x1e, 0x23, 0x26, 0xc5, 0x37, 0xfe, 0xd6, 0x4c, 0xd9, 0x02, 0x0f, 0xd4, 0x21, 0xe5, 0xe1, 0x0a, 
    0x04, 0x61, 0xff, 0xe3, 0x2a, 0x2d, 0xdd, 0x36, 0x6b, 0xa6, 0xf1, 0x64, 0xd3, 0x47, 0xf9, 0xfa, 
    0x98, 0x5d, 0x5e, 0xf2, 0xc4, 0x0d, 0x39, 0x01, 0xbf, 0x4d, 0x4e, 0x13, 0x5f, 0xbf, 0xe4, 0x90, 
    0x06, 0xb7, 0x1c, 0x45, 0xaa, 0x35, 0x15, 0x2c, 0xc4, 0xc1, 0x61, 0xea, 0x01, 0x01, 0x27, 0x34, 
    0xef, 0xef, 0x51, 0xf2, 0x66, 0x6a, 0x3d, 0xd7, 0x7f, 0xcb, 0x3d, 0x02, 0xe9, 0x0a, 0xd7, 0xcf, 
    0x46, 0x02, 0x07, 0x47, 0xf3, 0x32, 0xe2, 0xf6, 0x3d, 0xaa, 0x2e, 0x4d, 0x6e, 0xfc, 0xff, 0xff, 
    0x04, 0x00, 0x00, 0x00, 0x20, 0x00, 0x00, 0x00, 0x17, 0xc6, 0xff, 0xff, 0x8a, 0xf0, 0xff, 0xff, 
    0xb5, 0xe6, 0xff, 0xff, 0x25, 0x41, 0x00, 0x00, 0xe6, 0xe7, 0xff, 0xff, 0xbb, 0xe1, 0xff, 0xff, 
    0xc3, 0xe1, 0xff, 0xff, 0x78, 0xdc, 0xff, 0xff, 0x9a, 0xfc, 0xff, 0xff, 0x04, 0x00, 0x00, 0x00, 
    0x40, 0x02, 0x00, 0x00, 0x04, 0x70, 0x33, 0x5f, 0xed, 0x46, 0xae, 0x36, 0x81, 0x2f, 0x1c, 0xb8, 
    0x0b, 0x3d, 0xa7, 0xa1, 0xfc, 0xce, 0x44, 0xe0, 0x3f, 0xff, 0x0d, 0x35, 0xe3, 0xf5, 0xe4, 0xd5, 
    0x60, 0xff, 0xf2, 0x67, 0xec, 0x40, 0x30, 0x2f, 0x38, 0x07, 0x34, 0xd7, 0xf7, 0x0c, 0x50, 0x07, 
    0xf3, 0x3b, 0xb6, 0xce, 0x39, 0x59, 0x96, 0xec, 0xda, 0x7f, 0xe7, 0x12, 0x29, 0xf2, 0x07, 0xd7, 
    0xd0, 0x00, 0xc6, 0x54, 0x21, 0x09, 0xfe, 0xd2, 0xd7, 0x61, 0xe0, 0x3c, 0xec, 0x18, 0x06, 0x06, 
    0xdf, 0x21, 0x07, 0xf4, 0xf9, 0x7f, 0x5a, 0xd7, 0x02, 0xce, 0xd3, 0xe1, 0xa5, 0x06, 0x69, 0x2f, 
    0xc5, 0x3a, 0xc7, 0xc2, 0x11, 0x60, 0x54, 0xf1, 0x00, 0x05, 0xdc, 0x24, 0xb4, 0xe5, 0xc5, 0xed, 
    0x20, 0x42, 0xed, 0x1c, 0x2c, 0xdb, 0x33, 0xb9, 0x46, 0x10, 0xfc, 0x01, 0x22, 0x43, 0xc5, 0x17, 
    0x07, 0x65, 0xae, 0x5c, 0xf9, 0x05, 0xd7, 0xc3, 0x3b, 0x38, 0xe9, 0xe1, 0x2b, 0xfc, 0x3e, 0xf7, 
    0xf1, 0x44, 0xc3, 0x4c, 0x3c, 0xc1, 0xd6, 0xca, 0x2e, 0xec, 0x5b, 0xe6, 0xd2, 0xfd, 0xd8, 0x0f, 
    0x36, 0x02, 0x57, 0xe1, 0xfc, 0x23, 0xf2, 0xe6, 0x47, 0xef, 0x17, 0xee, 0xe2, 0xd1, 0x48, 0x10, 
    0x05, 0x01, 0xf4, 0x1d, 0xcf, 0xef, 0x1b, 0x15, 0xf4, 0xe8, 0x47, 0x2e, 0xe7, 0x0f, 0x09, 0xe4, 
    0x13, 0x23, 0xfe, 0x09, 0xe9, 0x06, 0x0b, 0xf7, 0xff, 0x1a, 0x7f, 0xc8, 0xc7, 0x11, 0x16, 0xfa, 
    0x1e, 0xcf, 0x24, 0x12, 0xfd, 0x0e, 0xf0, 0xee, 0x1f, 0x22, 0x3b, 0xef, 0x30, 0xc7, 0x00, 0xc6, 
    0x32, 0xcf, 0x68, 0x1d, 0x09, 0x23, 0x9c, 0x18, 0x46, 0xe1, 0x36, 0xfd, 0xdc, 0xd1, 0x16, 0xad, 
    0x20, 0xd4, 0x5a, 0xf4, 0x04, 0xf8, 0x1e, 0x1f, 0xf7, 0xd2, 0x4b, 0x12, 0xe1, 0xc8, 0xff, 0x2e, 
    0xd0, 0x30, 0x0e, 0x4b, 0xd5, 0x46, 0x03, 0xe9, 0x46, 0xfc, 0x3c, 0x1e, 0xb0, 0xcc, 0x04, 0x14, 
    0x3c, 0xd9, 0x7f, 0x01, 0xec, 0x07, 0xee, 0x1e, 0x1e, 0x3e, 0x20, 0xde, 0xbb, 0x06, 0xdb, 0x03, 
    0x4a, 0x28, 0x58, 0x23, 0xa2, 0x51, 0x6a, 0xb5, 0x60, 0x51, 0x95, 0x58, 0x17, 0x0f, 0x20, 0x4a, 
    0x00, 0xba, 0xde, 0x01, 0xa4, 0x0e, 0x25, 0xcb, 0xea, 0x13, 0x16, 0x09, 0x13, 0x57, 0xbe, 0xfd, 
    0x46, 0x29, 0xd7, 0xd5, 0xba, 0x31, 0xd5, 0x0e, 0x40, 0x66, 0xd7, 0xd3, 0xe1, 0xeb, 0x72, 0xee, 
    0xcb, 0xfd, 0xec, 0xff, 0x29, 0x0d, 0x9e, 0x14, 0xe0, 0xe3, 0xc1, 0x77, 0x24, 0x17, 0x53, 0x10, 
    0xd9, 0x7f, 0xd7, 0x61, 0x73, 0x13, 0x43, 0xf6, 0x22, 0x41, 0xcb, 0xbf, 0x1d, 0xd3, 0xe7, 0xff, 
    0x3c, 0xe5, 0x3c, 0xe8, 0xf7, 0x03, 0xdf, 0xc1, 0x23, 0xee, 0x27, 0xc3, 0x19, 0xff, 0xf0, 0x17, 
    0x00, 0x3e, 0x71, 0xdb, 0x23, 0x0f, 0x3c, 0x20, 0xf2, 0x25, 0x60, 0xf0, 0xd6, 0xdc, 0xd8, 0x0b, 
    0x08, 0x54, 0x05, 0x3a, 0xca, 0x40, 0xfa, 0xf9, 0x48, 0x40, 0x12, 0xd2, 0xaf, 0xdd, 0x32, 0xd8, 
    0xf3, 0xb3, 0x7f, 0xe8, 0xe3, 0x2c, 0xed, 0x37, 0x08, 0x3f, 0x3a, 0xf9, 0xde, 0xe0, 0xc0, 0xdf, 
    0x20, 0x1c, 0x3d, 0x0c, 0xa9, 0x67, 0x36, 0x3a, 0x27, 0xc1, 0x16, 0x7d, 0xc3, 0x65, 0x08, 0x44, 
    0x5f, 0x07, 0xbb, 0x2d, 0x9b, 0xce, 0x2e, 0x9e, 0xc7, 0x4e, 0xba, 0xf2, 0xce, 0x13, 0xee, 0xd0, 
    0xbe, 0x60, 0xd4, 0x2c, 0x1e, 0xd9, 0x1c, 0x04, 0xdb, 0xcd, 0x25, 0xef, 0x2c, 0x10, 0x3c, 0xfd, 
    0x48, 0x23, 0xe7, 0x98, 0x7f, 0x0c, 0x45, 0xed, 0x0d, 0x22, 0x9a, 0x33, 0xec, 0x1a, 0x25, 0xe5, 
    0xef, 0x3a, 0xf5, 0xe4, 0x06, 0xc8, 0x27, 0x8b, 0xfd, 0x55, 0xef, 0x39, 0xf9, 0x23, 0x59, 0x49, 
    0xc4, 0xf6, 0xa0, 0xe9, 0xc2, 0xf4, 0xfc, 0x08, 0xef, 0x35, 0x12, 0x37, 0xd0, 0xc3, 0xfc, 0xfb, 
    0xa5, 0x55, 0x1b, 0xed, 0x30, 0x56, 0xef, 0xba, 0xc6, 0x04, 0x0d, 0x66, 0xe2, 0x27, 0x2a, 0xb8, 
    0x3e, 0xf6, 0xad, 0x0b, 0x1d, 0x0c, 0x34, 0xc3, 0x0b, 0xeb, 0x11, 0x7f, 0x26, 0x0e, 0xf4, 0x26, 
    0x10, 0xfe, 0x07, 0x4b, 0xfe, 0x57, 0xfc, 0xfc, 0x2c, 0x07, 0xe5, 0x1f, 0x3b, 0xcc, 0x63, 0xda, 
    0xfe, 0xfb, 0xcd, 0xfa, 0xe6, 0xfe, 0xff, 0xff, 0x04, 0x00, 0x00, 0x00, 0x20, 0x00, 0x00, 0x00, 
    0xb9, 0xf0, 0xff, 0xff, 0x68, 0xf5, 0xff, 0xff, 0x6e, 0xf5, 0xff, 0xff, 0x83, 0xec, 0xff, 0xff, 
    0x79, 0xec, 0xff, 0xff, 0xae, 0xf1, 0xff, 0xff, 0xae, 0xf8, 0xff, 0xff, 0x44, 0xed, 0xff, 0xff, 
    0x12, 0xff, 0xff, 0xff, 0x04, 0x00, 0x00, 0x00, 0x10, 0x00, 0x00, 0x00, 0x08, 0x07, 0x1e, 0xca, 
    0xac, 0x19, 0x81, 0xd6, 0x70, 0x70, 0x83, 0x81, 0x48, 0xaa, 0xf1, 0x4a, 0x2e, 0xff, 0xff, 0xff, 
    0x04, 0x00, 0x00, 0x00, 0x08, 0x00, 0x00, 0x00, 0x38, 0x03, 0x00, 0x00, 0xf2, 0xfc, 0xff, 0xff, 
    0x42, 0xff, 0xff, 0xff, 0x04, 0x00, 0x00, 0x00, 0x08, 0x00, 0x00, 0x00, 0x01, 0x00, 0x00, 0x00, 
    0x02, 0x00, 0x00, 0x00, 0xf0, 0xe5, 0xff, 0xff, 0xf4, 0xe5, 0xff, 0xff, 0x0f, 0x00, 0x00, 0x00, 
    0x4d, 0x4c, 0x49, 0x52, 0x20, 0x43, 0x6f, 0x6e, 0x76, 0x65, 0x72, 0x74, 0x65, 0x64, 0x2e, 0x00, 
    0x01, 0x00, 0x00, 0x00, 0x14, 0x00, 0x00, 0x00, 0x00, 0x00, 0x0e, 0x00, 0x18, 0x00, 0x14, 0x00, 
    0x10, 0x00, 0x0c, 0x00, 0x08, 0x00, 0x04, 0x00, 0x0e, 0x00, 0x00, 0x00, 0x14, 0x00, 0x00, 0x00, 
    0x1c, 0x00, 0x00, 0x00, 0x60, 0x03, 0x00, 0x00, 0x64, 0x03, 0x00, 0x00, 0x68, 0x03, 0x00, 0x00, 
    0x04, 0x00, 0x00, 0x00, 0x6d, 0x61, 0x69, 0x6e, 0x00, 0x00, 0x00, 0x00, 0x0d, 0x00, 0x00, 0x00, 
    0xfc, 0x02, 0x00, 0x00, 0xac, 0x02, 0x00, 0x00, 0x64, 0x02, 0x00, 0x00, 0x24, 0x02, 0x00, 0x00, 
    0xd4, 0x01, 0x00, 0x00, 0x98, 0x01, 0x00, 0x00, 0x60, 0x01, 0x00, 0x00, 0x20, 0x01, 0x00, 0x00, 
    0xe4, 0x00, 0x00, 0x00, 0xac, 0x00, 0x00, 0x00, 0x78, 0x00, 0x00, 0x00, 0x40, 0x00, 0x00, 0x00, 
    0x04, 0x00, 0x00, 0x00, 0x12, 0xfe, 0xff, 0xff, 0x1c, 0x00, 0x00, 0x00, 0x00, 0x00, 0x00, 0x09, 
    0x1c, 0x00, 0x00, 0x00, 0x20, 0x00, 0x00, 0x00, 0x04, 0x00, 0x00, 0x00, 0x00, 0x00, 0x06, 0x00, 
    0x08, 0x00, 0x04, 0x00, 0x06, 0x00, 0x00, 0x00, 0x00, 0x00, 0x80, 0x3f, 0x01, 0x00, 0x00, 0x00, 
    0x1e, 0x00, 0x00, 0x00, 0x01, 0x00, 0x00, 0x00, 0x1d, 0x00, 0x00, 0x00, 0x4a, 0xfe, 0xff, 0xff, 
    0x14, 0x00, 0x00, 0x00, 0x00, 0x00, 0x00, 0x08, 0x10, 0x00, 0x00, 0x00, 0x14, 0x00, 0x00, 0x00, 
    0x03, 0x00, 0x00, 0x00, 0xd0, 0xe6, 0xff, 0xff, 0x01, 0x00, 0x00, 0x00, 0x1d, 0x00, 0x00, 0x00, 
    0x03, 0x00, 0x00, 0x00, 0x1c, 0x00, 0x00, 0x00, 0x03, 0x00, 0x00, 0x00, 0x02, 0x00, 0x00, 0x00, 
    0x7e, 0xfe, 0xff, 0xff, 0x14, 0x00, 0x00, 0x00, 0x00, 0x00, 0x00, 0x1b, 0x10, 0x00, 0x00, 0x00, 
    0x14, 0x00, 0x00, 0x00, 0x02, 0x00, 0x00, 0x00, 0x04, 0xe7, 0xff, 0xff, 0x01, 0x00, 0x00, 0x00, 
    0x1c, 0x00, 0x00, 0x00, 0x02, 0x00, 0x00, 0x00, 0x1b, 0x00, 0x00, 0x00, 0x01, 0x00, 0x00, 0x00, 
    0xae, 0xfe, 0xff, 0xff, 0x14, 0x00, 0x00, 0x00, 0x00, 0x00, 0x00, 0x0b, 0x14, 0x00, 0x00, 0x00, 
    0x18, 0x00, 0x00, 0x00, 0x01, 0x00, 0x00, 0x00, 0x9e, 0xfe, 0xff, 0xff, 0x00, 0x00, 0x00, 0x01, 
    0x01, 0x00, 0x00, 0x00, 0x1b, 0x00, 0x00, 0x00, 0x02, 0x00, 0x00, 0x00, 0x18, 0x00, 0x00, 0x00, 
    0x1a, 0x00, 0x00, 0x00, 0x16, 0xfe, 0xff, 0xff, 0x10, 0x00, 0x00, 0x00, 0x00, 0x00, 0x00, 0x01, 
    0x14, 0x00, 0x00, 0x00, 0x18, 0x00, 0x00, 0x00, 0x96, 0xfe, 0xff, 0xff, 0x01, 0x00, 0x00, 0x00, 
    0x01, 0x00, 0x00, 0x00, 0x01, 0x00, 0x00, 0x00, 0x1a, 0x00, 0x00, 0x00, 0x03, 0x00, 0x00, 0x00, 
    0x19, 0x00, 0x00, 0x00, 0x05, 0x00, 0x00, 0x00, 0x04, 0x00, 0x00, 0x00, 0x4e, 0xfe, 0xff, 0xff, 
    0x10, 0x00, 0x00, 0x00, 0x00, 0x00, 0x00, 0x01, 0x18, 0x00, 0x00, 0x00, 0x1c, 0x00, 0x00, 0x00, 
    0x40, 0xfe, 0xff, 0xff, 0x00, 0x00, 0x00, 0x01, 0x01, 0x00, 0x00, 0x00, 0x01, 0x00, 0x00, 0x00, 
    0x01, 0x00, 0x00, 0x00, 0x19, 0x00, 0x00, 0x00, 0x03, 0x00, 0x00, 0x00, 0x18, 0x00, 0x00, 0x00, 
    0x07, 0x00, 0x00, 0x00, 0x06, 0x00, 0x00, 0x00, 0x56, 0xff, 0xff, 0xff, 0x14, 0x00, 0x00, 0x00, 
    0x00, 0x00, 0x00, 0x0b, 0x14, 0x00, 0x00, 0x00, 0x18, 0x00, 0x00, 0x00, 0x01, 0x00, 0x00, 0x00, 
    0x46, 0xff, 0xff, 0xff, 0x00, 0x00, 0x00, 0x01, 0x01, 0x00, 0x00, 0x00, 0x18, 0x00, 0x00, 0x00, 
    0x02, 0x00, 0x00, 0x00, 0x15, 0x00, 0x00, 0x00, 0x17, 0x00, 0x00, 0x00, 0xbe, 0xfe, 0xff, 0xff, 
    0x10, 0x00, 0x00, 0x00, 0x00, 0x00, 0x00, 0x01, 0x14, 0x00, 0x00, 0x00, 0x18, 0x00, 0x00, 0x00, 
    0x3e, 0xff, 0xff, 0xff, 0x01, 0x00, 0x00, 0x00, 0x01, 0x00, 0x00, 0x00, 0x01, 0x00, 0x00, 0x00, 
    0x17, 0x00, 0x00, 0x00, 0x03, 0x00, 0x00, 0x00, 0x16, 0x00, 0x00, 0x00, 0x09, 0x00, 0x00, 0x00, 
    0x08, 0x00, 0x00, 0x00, 0xf6, 0xfe, 0xff, 0xff, 0x10, 0x00, 0x00, 0x00, 0x00, 0x00, 0x00, 0x01, 
    0x18, 0x00, 0x00, 0x00, 0x1c, 0x00, 0x00, 0x00, 0xe8, 0xfe, 0xff, 0xff, 0x00, 0x00, 0x00, 0x01, 
    0x01, 0x00, 0x00, 0x00, 0x01, 0x00, 0x00, 0x00, 0x01, 0x00, 0x00, 0x00, 0x16, 0x00, 0x00, 0x00, 
    0x03, 0x00, 0x00, 0x00, 0x15, 0x00, 0x00, 0x00, 0x0b, 0x00, 0x00, 0x00, 0x0a, 0x00, 0x00, 0x00, 
    0x00, 0x00, 0x0e, 0x00, 0x1a, 0x00, 0x14, 0x00, 0x10, 0x00, 0x0c, 0x00, 0x0b, 0x00, 0x04, 0x00, 
    0x0e, 0x00, 0x00, 0x00, 0x1c, 0x00, 0x00, 0x00, 0x00, 0x00, 0x00, 0x0b, 0x1c, 0x00, 0x00, 0x00, 
    0x20, 0x00, 0x00, 0x00, 0x01, 0x00, 0x00, 0x00, 0x00, 0x00, 0x06, 0x00, 0x08, 0x00, 0x07, 0x00, 
    0x06, 0x00, 0x00, 0x00, 0x00, 0x00, 0x00, 0x01, 0x01, 0x00, 0x00, 0x00, 0x15, 0x00, 0x00, 0x00, 
    0x02, 0x00, 0x00, 0x00, 0x12, 0x00, 0x00, 0x00, 0x14, 0x00, 0x00, 0x00, 0x7e, 0xff, 0xff, 0xff, 
    0x1c, 0x00, 0x00, 0x00, 0x00, 0x00, 0x00, 0x01, 0x20, 0x00, 0x00, 0x00, 0x24, 0x00, 0x00, 0x00, 
    0x00, 0x00, 0x0a, 0x00, 0x0c, 0x00, 0x00, 0x00, 0x08, 0x00, 0x04, 0x00, 0x0a, 0x00, 0x00, 0x00, 
    0x01, 0x00, 0x00, 0x00, 0x01, 0x00, 0x00, 0x00, 0x01, 0x00, 0x00, 0x00, 0x14, 0x00, 0x00, 0x00, 
    0x03, 0x00, 0x00, 0x00, 0x13, 0x00, 0x00, 0x00, 0x0d, 0x00, 0x00, 0x00, 0x0c, 0x00, 0x00, 0x00, 
    0xc2, 0xff, 0xff, 0xff, 0x10, 0x00, 0x00, 0x00, 0x00, 0x00, 0x00, 0x01, 0x18, 0x00, 0x00, 0x00, 
    0x1c, 0x00, 0x00, 0x00, 0xb4, 0xff, 0xff, 0xff, 0x00, 0x00, 0x00, 0x01, 0x01, 0x00, 0x00, 0x00, 
    0x01, 0x00, 0x00, 0x00, 0x01, 0x00, 0x00, 0x00, 0x13, 0x00, 0x00, 0x00, 0x03, 0x00, 0x00, 0x00, 
    0x12, 0x00, 0x00, 0x00, 0x0f, 0x00, 0x00, 0x00, 0x0e, 0x00, 0x00, 0x00, 0x00, 0x00, 0x0e, 0x00, 
    0x14, 0x00, 0x00, 0x00, 0x10, 0x00, 0x0c, 0x00, 0x0b, 0x00, 0x04, 0x00, 0x0e, 0x00, 0x00, 0x00, 
    0x1c, 0x00, 0x00, 0x00, 0x00, 0x00, 0x00, 0x01, 0x24, 0x00, 0x00, 0x00, 0x28, 0x00, 0x00, 0x00, 
    0x0c, 0x00, 0x10, 0x00, 0x00, 0x00, 0x0c, 0x00, 0x08, 0x00, 0x07, 0x00, 0x0c, 0x00, 0x00, 0x00, 
    0x00, 0x00, 0x00, 0x01, 0x01, 0x00, 0x00, 0x00, 0x01, 0x00, 0x00, 0x00, 0x01, 0x00, 0x00, 0x00, 
    0x12, 0x00, 0x00, 0x00, 0x03, 0x00, 0x00, 0x00, 0x00, 0x00, 0x00, 0x00, 0x11, 0x00, 0x00, 0x00, 
    0x10, 0x00, 0x00, 0x00, 0x01, 0x00, 0x00, 0x00, 0x1e, 0x00, 0x00, 0x00, 0x01, 0x00, 0x00, 0x00, 
    0x00, 0x00, 0x00, 0x00, 0x1f, 0x00, 0x00, 0x00, 0x98, 0x16, 0x00, 0x00, 0x3c, 0x16, 0x00, 0x00, 
    0xb4, 0x15, 0x00, 0x00, 0x40, 0x15, 0x00, 0x00, 0x8c, 0x14, 0x00, 0x00, 0xc8, 0x13, 0x00, 0x00, 
    0x14, 0x13, 0x00, 0x00, 0x50, 0x12, 0x00, 0x00, 0x9c, 0x11, 0x00, 0x00, 0xd8, 0x10, 0x00, 0x00, 
    0x24, 0x10, 0x00, 0x00, 0x60, 0x0f, 0x00, 0x00, 0xac, 0x0e, 0x00, 0x00, 0xe8, 0x0d, 0x00, 0x00, 
    0x34, 0x0d, 0x00, 0x00, 0x70, 0x0c, 0x00, 0x00, 0xbc, 0x0b, 0x00, 0x00, 0xf8, 0x0a, 0x00, 0x00, 
    0xe4, 0x09, 0x00, 0x00, 0xc8, 0x08, 0x00, 0x00, 0xcc, 0x07, 0x00, 0x00, 0x28, 0x07, 0x00, 0x00, 
    0x0c, 0x06, 0x00, 0x00, 0x10, 0x05, 0x00, 0x00, 0x6c, 0x04, 0x00, 0x00, 0x50, 0x03, 0x00, 0x00, 
    0x54, 0x02, 0x00, 0x00, 0xb0, 0x01, 0x00, 0x00, 0x1c, 0x01, 0x00, 0x00, 0x80, 0x00, 0x00, 0x00, 
    0x04, 0x00, 0x00, 0x00, 0xfa, 0xe9, 0xff, 0xff, 0x00, 0x00, 0x00, 0x01, 0x18, 0x00, 0x00, 0x00, 
    0x20, 0x00, 0x00, 0x00, 0x3c, 0x00, 0x00, 0x00, 0x1f, 0x00, 0x00, 0x00, 0x00, 0x00, 0x00, 0x09, 
    0x50, 0x00, 0x00, 0x00, 0x02, 0x00, 0x00, 0x00, 0xff, 0xff, 0xff, 0xff, 0x02, 0x00, 0x00, 0x00, 
    0xdc, 0xe9, 0xff, 0xff, 0x08, 0x00, 0x00, 0x00, 0x10, 0x00, 0x00, 0x00, 0x01, 0x00, 0x00, 0x00, 
    0x80, 0xff, 0xff, 0xff, 0xff, 0xff, 0xff, 0xff, 0x01, 0x00, 0x00, 0x00, 0x00, 0x00, 0x80, 0x3b, 
    0x1b, 0x00, 0x00, 0x00, 0x53, 0x74, 0x61, 0x74, 0x65, 0x66, 0x75, 0x6c, 0x50, 0x61, 0x72, 0x74, 
    0x69, 0x74, 0x69, 0x6f, 0x6e, 0x65, 0x64, 0x43, 0x61, 0x6c, 0x6c, 0x5f, 0x31, 0x3a, 0x30, 0x00, 
    0x02, 0x00, 0x00, 0x00, 0x01, 0x00, 0x00, 0x00, 0x02, 0x00, 0x00, 0x00, 0x72, 0xea, 0xff, 0xff, 
    0x00, 0x00, 0x00, 0x01, 0x18, 0x00, 0x00, 0x00, 0x20, 0x00, 0x00, 0x00, 0x3c, 0x00, 0x00, 0x00, 
    0x1e, 0x00, 0x00, 0x00, 0x00, 0x00, 0x00, 0x09, 0x70, 0x00, 0x00, 0x00, 0x02, 0x00, 0x00, 0x00, 
    0xff, 0xff, 0xff, 0xff, 0x02, 0x00, 0x00, 0x00, 0x54, 0xea, 0xff, 0xff, 0x08, 0x00, 0x00, 0x00, 
    0x10, 0x00, 0x00, 0x00, 0x01, 0x00, 0x00, 0x00, 0x11, 0x00, 0x00, 0x00, 0x00, 0x00, 0x00, 0x00, 
    0x01, 0x00, 0x00, 0x00, 0xeb, 0xf8, 0x45, 0x3d, 0x38, 0x00, 0x00, 0x00, 0x66, 0x75, 0x6e, 0x63, 
    0x74, 0x69, 0x6f, 0x6e, 0x61, 0x6c, 0x5f, 0x31, 0x2f, 0x64, 0x65, 0x6e, 0x73, 0x65, 0x5f, 0x31, 
    0x2f, 0x4d, 0x61, 0x74, 0x4d, 0x75, 0x6c, 0x3b, 0x66, 0x75, 0x6e, 0x63, 0x74, 0x69, 0x6f, 0x6e, 
    0x61, 0x6c, 0x5f, 0x31, 0x2f, 0x64, 0x65, 0x6e, 0x73, 0x65, 0x5f, 0x31, 0x2f, 0x42, 0x69, 0x61, 
    0x73, 0x41, 0x64, 0x64, 0x00, 0x00, 0x00, 0x00, 0x02, 0x00, 0x00, 0x00, 0x01, 0x00, 0x00, 0x00, 
    0x02, 0x00, 0x00, 0x00, 0x0a, 0xeb, 0xff, 0xff, 0x00, 0x00, 0x00, 0x01, 0x18, 0x00, 0x00, 0x00, 
    0x20, 0x00, 0x00, 0x00, 0x40, 0x00, 0x00, 0x00, 0x1d, 0x00, 0x00, 0x00, 0x00, 0x00, 0x00, 0x09, 
    0x68, 0x00, 0x00, 0x00, 0x02, 0x00, 0x00, 0x00, 0xff, 0xff, 0xff, 0xff, 0x08, 0x00, 0x00, 0x00, 
    0xec, 0xea, 0xff, 0xff, 0x08, 0x00, 0x00, 0x00, 0x14, 0x00, 0x00, 0x00, 0x01, 0x00, 0x00, 0x00, 
    0x80, 0xff, 0xff, 0xff, 0xff, 0xff, 0xff, 0xff, 0x00, 0x00, 0x00, 0x00, 0x01, 0x00, 0x00, 0x00, 
    0xa5, 0x2f, 0x53, 0x3c, 0x2c, 0x00, 0x00, 0x00, 0x66, 0x75, 0x6e, 0x63, 0x74, 0x69, 0x6f, 0x6e, 
    0x61, 0x6c, 0x5f, 0x31, 0x2f, 0x67, 0x6c, 0x6f, 0x62, 0x61, 0x6c, 0x5f, 0x61, 0x76, 0x65, 0x72, 
    0x61, 0x67, 0x65, 0x5f, 0x70, 0x6f, 0x6f, 0x6c, 0x69, 0x6e, 0x67, 0x32, 0x64, 0x5f, 0x31, 0x2f, 
    0x4d, 0x65, 0x61, 0x6e, 0x00, 0x00, 0x00, 0x00, 0x02, 0x00, 0x00, 0x00, 0x01, 0x00, 0x00, 0x00, 
    0x08, 0x00, 0x00, 0x00, 0x9a, 0xeb, 0xff, 0xff, 0x00, 0x00, 0x00, 0x01, 0x18, 0x00, 0x00, 0x00, 
    0x28, 0x00, 0x00, 0x00, 0x48, 0x00, 0x00, 0x00, 0x1c, 0x00, 0x00, 0x00, 0x00, 0x00, 0x00, 0x09, 
    0x70, 0x00, 0x00, 0x00, 0x04, 0x00, 0x00, 0x00, 0xff, 0xff, 0xff, 0xff, 0x31, 0x00, 0x00, 0x00, 
    0x28, 0x00, 0x00, 0x00, 0x08, 0x00, 0x00, 0x00, 0x84, 0xeb, 0xff, 0xff, 0x08, 0x00, 0x00, 0x00, 
    0x14, 0x00, 0x00, 0x00, 0x01, 0x00, 0x00, 0x00, 0x80, 0xff, 0xff, 0xff, 0xff, 0xff, 0xff, 0xff, 
    0x00, 0x00, 0x00, 0x00, 0x01, 0x00, 0x00, 0x00, 0x18, 0x68, 0xb8, 0x3d, 0x2e, 0x00, 0x00, 0x00, 
    0x66, 0x75, 0x6e, 0x63, 0x74, 0x69, 0x6f, 0x6e, 0x61, 0x6c, 0x5f, 0x31, 0x2f, 0x72, 0x65, 0x5f, 
    0x6c, 0x75, 0x5f, 0x36, 0x5f, 0x31, 0x2f, 0x52, 0x65, 0x6c, 0x75, 0x3b, 0x66, 0x75, 0x6e, 0x63, 
    0x74, 0x69, 0x6f, 0x6e, 0x61, 0x6c, 0x5f, 0x31, 0x2f, 0x41, 0x64, 0x64, 0x5f, 0x32, 0x00, 0x00, 
    0x04, 0x00, 0x00, 0x00, 0x01, 0x00, 0x00, 0x00, 0x31, 0x00, 0x00, 0x00, 0x28, 0x00, 0x00, 0x00, 
    0x08, 0x00, 0x00, 0x00, 0x3a, 0xec, 0xff, 0xff, 0x00, 0x00, 0x00, 0x01, 0x18, 0x00, 0x00, 0x00, 
    0x28, 0x00, 0x00, 0x00, 0x44, 0x00, 0x00, 0x00, 0x1b, 0x00, 0x00, 0x00, 0x00, 0x00, 0x00, 0x09, 
    0xc8, 0x00, 0x00, 0x00, 0x04, 0x00, 0x00, 0x00, 0xff, 0xff, 0xff, 0xff, 0x31, 0x00, 0x00, 0x00, 
    0x28, 0x00, 0x00, 0x00, 0x08, 0x00, 0x00, 0x00, 0x24, 0xec, 0xff, 0xff, 0x08, 0x00, 0x00, 0x00, 
    0x10, 0x00, 0x00, 0x00, 0x01, 0x00, 0x00, 0x00, 0xb3, 0xff, 0xff, 0xff, 0xff, 0xff, 0xff, 0xff, 
    0x01, 0x00, 0x00, 0x00, 0x13, 0x07, 0xe7, 0x3d, 0x8b, 0x00, 0x00, 0x00, 0x66, 0x75, 0x6e, 0x63, 
    0x74, 0x69, 0x6f, 0x6e, 0x61, 0x6c, 0x5f, 0x31, 0x2f, 0x62, 0x61, 0x74, 0x63, 0x68, 0x5f, 0x6e, 
    0x6f, 0x72, 0x6d, 0x61, 0x6c, 0x69, 0x7a, 0x61, 0x74, 0x69, 0x6f, 0x6e, 0x5f, 0x36, 0x5f, 0x31, 
    0x2f, 0x62, 0x61, 0x74, 0x63, 0x68, 0x6e, 0x6f, 0x72, 0x6d, 0x2f, 0x61, 0x64, 0x64, 0x5f, 0x31, 
    0x3b, 0x66, 0x75, 0x6e, 0x63, 0x74, 0x69, 0x6f, 0x6e, 0x61, 0x6c, 0x5f, 0x31, 0x2f, 0x63, 0x6f, 
    0x6e, 0x76, 0x32, 0x64, 0x5f, 0x36, 0x5f, 0x31, 0x2f, 0x63, 0x6f, 0x6e, 0x76, 0x6f, 0x6c, 0x75, 
    0x74, 0x69, 0x6f, 0x6e, 0x3b, 0x66, 0x75, 0x6e, 0x63, 0x74, 0x69, 0x6f, 0x6e, 0x61, 0x6c, 0x5f, 
    0x31, 0x2f, 0x62, 0x61, 0x74, 0x63, 0x68, 0x5f, 0x6e, 0x6f, 0x72, 0x6d, 0x61, 0x6c, 0x69, 0x7a, 
    0x61, 0x74, 0x69, 0x6f, 0x6e, 0x5f, 0x36, 0x5f, 0x31, 0x2f, 0x62, 0x61, 0x74, 0x63, 0x68, 0x6e, 
    0x6f, 0x72, 0x6d, 0x2f, 0x73, 0x75, 0x62, 0x00, 0x04, 0x00, 0x00, 0x00, 0x01, 0x00, 0x00, 0x00, 
    0x31, 0x00, 0x00, 0x00, 0x28, 0x00, 0x00, 0x00, 0x08, 0x00, 0x00, 0x00, 0x32, 0xed, 0xff, 0xff, 
    0x00, 0x00, 0x00, 0x01, 0x18, 0x00, 0x00, 0x00, 0x28, 0x00, 0x00, 0x00, 0x48, 0x00, 0x00, 0x00, 
    0x1a, 0x00, 0x00, 0x00, 0x00, 0x00, 0x00, 0x09, 0xe8, 0x00, 0x00, 0x00, 0x04, 0x00, 0x00, 0x00, 
    0xff, 0xff, 0xff, 0xff, 0x31, 0x00, 0x00, 0x00, 0x28, 0x00, 0x00, 0x00, 0x08, 0x00, 0x00, 0x00, 
    0x1c, 0xed, 0xff, 0xff, 0x08, 0x00, 0x00, 0x00, 0x14, 0x00, 0x00, 0x00, 0x01, 0x00, 0x00, 0x00, 
    0x80, 0xff, 0xff, 0xff, 0xff, 0xff, 0xff, 0xff, 0x00, 0x00, 0x00, 0x00, 0x01, 0x00, 0x00, 0x00, 
    0x2a, 0x13, 0x10, 0x3d, 0xa7, 0x00, 0x00, 0x00, 0x66, 0x75, 0x6e, 0x63, 0x74, 0x69, 0x6f, 0x6e, 
    0x61, 0x6c, 0x5f, 0x31, 0x2f, 0x72, 0x65, 0x5f, 0x6c, 0x75, 0x5f, 0x35, 0x5f, 0x31, 0x2f, 0x52, 
    0x65, 0x6c, 0x75, 0x3b, 0x66, 0x75, 0x6e, 0x63, 0x74, 0x69, 0x6f, 0x6e, 0x61, 0x6c, 0x5f, 0x31, 
    0x2f, 0x62, 0x61, 0x74, 0x63, 0x68, 0x5f, 0x6e, 0x6f, 0x72, 0x6d, 0x61, 0x6c, 0x69, 0x7a, 0x61, 
    0x74, 0x69, 0x6f, 0x6e, 0x5f, 0x35, 0x5f, 0x31, 0x2f, 0x62, 0x61, 0x74, 0x63, 0x68, 0x6e, 0x6f, 
    0x72, 0x6d, 0x2f, 0x61, 0x64, 0x64, 0x5f, 0x31, 0x3b, 0x66, 0x75, 0x6e, 0x63, 0x74, 0x69, 0x6f, 
    0x6e, 0x61, 0x6c, 0x5f, 0x31, 0x2f, 0x63, 0x6f, 0x6e, 0x76, 0x32, 0x64, 0x5f, 0x35, 0x5f, 0x31, 
    0x2f, 0x63, 0x6f, 0x6e, 0x76, 0x6f, 0x6c, 0x75, 0x74, 0x69, 0x6f, 0x6e, 0x3b, 0x66, 0x75, 0x6e, 
    0x63, 0x74, 0x69, 0x6f, 0x6e, 0x61, 0x6c, 0x5f, 0x31, 0x2f, 0x62, 0x61, 0x74, 0x63, 0x68, 0x5f, 
    0x6e, 0x6f, 0x72, 0x6d, 0x61, 0x6c, 0x69, 0x7a, 0x61, 0x74, 0x69, 0x6f, 0x6e, 0x5f, 0x35, 0x5f, 
    0x31, 0x2f, 0x62, 0x61, 0x74, 0x63, 0x68, 0x6e, 0x6f, 0x72, 0x6d, 0x2f, 0x73, 0x75, 0x62, 0x00, 
    0x04, 0x00, 0x00, 0x00, 0x01, 0x00, 0x00, 0x00, 0x31, 0x00, 0x00, 0x00, 0x28, 0x00, 0x00, 0x00, 
    0x08, 0x00, 0x00, 0x00, 0x4a, 0xee, 0xff, 0xff, 0x00, 0x00, 0x00, 0x01, 0x18, 0x00, 0x00, 0x00, 
    0x28, 0x00, 0x00, 0x00, 0x48, 0x00, 0x00, 0x00, 0x19, 0x00, 0x00, 0x00, 0x00, 0x00, 0x00, 0x09, 
    0x70, 0x00, 0x00, 0x00, 0x04, 0x00, 0x00, 0x00, 0xff, 0xff, 0xff, 0xff, 0x31, 0x00, 0x00, 0x00, 
    0x28, 0x00, 0x00, 0x00, 0x08, 0x00, 0x00, 0x00, 0x34, 0xee, 0xff, 0xff, 0x08, 0x00, 0x00, 0x00, 
    0x14, 0x00, 0x00, 0x00, 0x01, 0x00, 0x00, 0x00, 0x80, 0xff, 0xff, 0xff, 0xff, 0xff, 0xff, 0xff, 
    0x00, 0x00, 0x00, 0x00, 0x01, 0x00, 0x00, 0x00, 0x23, 0x47, 0x74, 0x3d, 0x2e, 0x00, 0x00, 0x00, 
    0x66, 0x75, 0x6e, 0x63, 0x74, 0x69, 0x6f, 0x6e, 0x61, 0x6c, 0x5f, 0x31, 0x2f, 0x72, 0x65, 0x5f, 
    0x6c, 0x75, 0x5f, 0x34, 0x5f, 0x31, 0x2f, 0x52, 0x65, 0x6c, 0x75, 0x3b, 0x66, 0x75, 0x6e, 0x63, 
    0x74, 0x69, 0x6f, 0x6e, 0x61, 0x6c, 0x5f, 0x31, 0x2f, 0x41, 0x64, 0x64, 0x5f, 0x31, 0x00, 0x00, 
    0x04, 0x00, 0x00, 0x00, 0x01, 0x00, 0x00, 0x00, 0x31, 0x00, 0x00, 0x00, 0x28, 0x00, 0x00, 0x00, 
    0x08, 0x00, 0x00, 0x00, 0xea, 0xee, 0xff, 0xff, 0x00, 0x00, 0x00, 0x01, 0x18, 0x00, 0x00, 0x00, 
    0x28, 0x00, 0x00, 0x00, 0x44, 0x00, 0x00, 0x00, 0x18, 0x00, 0x00, 0x00, 0x00, 0x00, 0x00, 0x09, 
    0xc8, 0x00, 0x00, 0x00, 0x04, 0x00, 0x00, 0x00, 0xff, 0xff, 0xff, 0xff, 0x31, 0x00, 0x00, 0x00, 
    0x28, 0x00, 0x00, 0x00, 0x08, 0x00, 0x00, 0x00, 0xd4, 0xee, 0xff, 0xff, 0x08, 0x00, 0x00, 0x00, 
    0x10, 0x00, 0x00, 0x00, 0x01, 0x00, 0x00, 0x00, 0xe8, 0xff, 0xff, 0xff, 0xff, 0xff, 0xff, 0xff, 
    0x01, 0x00, 0x00, 0x00, 0xaa, 0xeb, 0xce, 0x3d, 0x8b, 0x00, 0x00, 0x00, 0x66, 0x75, 0x6e, 0x63, 
    0x74, 0x69, 0x6f, 0x6e, 0x61, 0x6c, 0x5f, 0x31, 0x2f, 0x62, 0x61, 0x74, 0x63, 0x68, 0x5f, 0x6e, 
    0x6f, 0x72, 0x6d, 0x61, 0x6c, 0x69, 0x7a, 0x61, 0x74, 0x69, 0x6f, 0x6e, 0x5f, 0x34, 0x5f, 0x31, 
    0x2f, 0x62, 0x61, 0x74, 0x63, 0x68, 0x6e, 0x6f, 0x72, 0x6d, 0x2f, 0x61, 0x64, 0x64, 0x5f, 0x31, 
    0x3b, 0x66, 0x75, 0x6e, 0x63, 0x74, 0x69, 0x6f, 0x6e, 0x61, 0x6c, 0x5f, 0x31, 0x2f, 0x63, 0x6f, 
    0x6e, 0x76, 0x32, 0x64, 0x5f, 0x34, 0x5f, 0x31, 0x2f, 0x63, 0x6f, 0x6e, 0x76, 0x6f, 0x6c, 0x75, 
    0x74, 0x69, 0x6f, 0x6e, 0x3b, 0x66, 0x75, 0x6e, 0x63, 0x74, 0x69, 0x6f, 0x6e, 0x61, 0x6c, 0x5f, 
    0x31, 0x2f, 0x62, 0x61, 0x74, 0x63, 0x68, 0x5f, 0x6e, 0x6f, 0x72, 0x6d, 0x61, 0x6c, 0x69, 0x7a, 
    0x61, 0x74, 0x69, 0x6f, 0x6e, 0x5f, 0x34, 0x5f, 0x31, 0x2f, 0x62, 0x61, 0x74, 0x63, 0x68, 0x6e, 
    0x6f, 0x72, 0x6d, 0x2f, 0x73, 0x75, 0x62, 0x00, 0x04, 0x00, 0x00, 0x00, 0x01, 0x00, 0x00, 0x00, 
    0x31, 0x00, 0x00, 0x00, 0x28, 0x00, 0x00, 0x00, 0x08, 0x00, 0x00, 0x00, 0xe2, 0xef, 0xff, 0xff, 
    0x00, 0x00, 0x00, 0x01, 0x18, 0x00, 0x00, 0x00, 0x28, 0x00, 0x00, 0x00, 0x48, 0x00, 0x00, 0x00, 
    0x17, 0x00, 0x00, 0x00, 0x00, 0x00, 0x00, 0x09, 0xe8, 0x00, 0x00, 0x00, 0x04, 0x00, 0x00, 0x00, 
    0xff, 0xff, 0xff, 0xff, 0x31, 0x00, 0x00, 0x00, 0x28, 0x00, 0x00, 0x00, 0x08, 0x00, 0x00, 0x00, 
    0xcc, 0xef, 0xff, 0xff, 0x08, 0x00, 0x00, 0x00, 0x14, 0x00, 0x00, 0x00, 0x01, 0x00, 0x00, 0x00, 
    0x80, 0xff, 0xff, 0xff, 0xff, 0xff, 0xff, 0xff, 0x00, 0x00, 0x00, 0x00, 0x01, 0x00, 0x00, 0x00, 
    0x3b, 0x87, 0xd7, 0x3c, 0xa7, 0x00, 0x00, 0x00, 0x66, 0x75, 0x6e, 0x63, 0x74, 0x69, 0x6f, 0x6e, 
    0x61, 0x6c, 0x5f, 0x31, 0x2f, 0x72, 0x65, 0x5f, 0x6c, 0x75, 0x5f, 0x33, 0x5f, 0x31, 0x2f, 0x52, 
    0x65, 0x6c, 0x75, 0x3b, 0x66, 0x75, 0x6e, 0x63, 0x74, 0x69, 0x6f, 0x6e, 0x61, 0x6c, 0x5f, 0x31, 
    0x2f, 0x62, 0x61, 0x74, 0x63, 0x68, 0x5f, 0x6e, 0x6f, 0x72, 0x6d, 0x61, 0x6c, 0x69, 0x7a, 0x61, 
    0x74, 0x69, 0x6f, 0x6e, 0x5f, 0x33, 0x5f, 0x31, 0x2f, 0x62, 0x61, 0x74, 0x63, 0x68, 0x6e, 0x6f, 
    0x72, 0x6d, 0x2f, 0x61, 0x64, 0x64, 0x5f, 0x31, 0x3b, 0x66, 0x75, 0x6e, 0x63, 0x74, 0x69, 0x6f, 
    0x6e, 0x61, 0x6c, 0x5f, 0x31, 0x2f, 0x63, 0x6f, 0x6e, 0x76, 0x32, 0x64, 0x5f, 0x33, 0x5f, 0x31, 
    0x2f, 0x63, 0x6f, 0x6e, 0x76, 0x6f, 0x6c, 0x75, 0x74, 0x69, 0x6f, 0x6e, 0x3b, 0x66, 0x75, 0x6e, 
    0x63, 0x74, 0x69, 0x6f, 0x6e, 0x61, 0x6c, 0x5f, 0x31, 0x2f, 0x62, 0x61, 0x74, 0x63, 0x68, 0x5f, 
    0x6e, 0x6f, 0x72, 0x6d, 0x61, 0x6c, 0x69, 0x7a, 0x61, 0x74, 0x69, 0x6f, 0x6e, 0x5f, 0x33, 0x5f, 
    0x31, 0x2f, 0x62, 0x61, 0x74, 0x63, 0x68, 0x6e, 0x6f, 0x72, 0x6d, 0x2f, 0x73, 0x75, 0x62, 0x00, 
    0x04, 0x00, 0x00, 0x00, 0x01, 0x00, 0x00, 0x00, 0x31, 0x00, 0x00, 0x00, 0x28, 0x00, 0x00, 0x00, 
    0x08, 0x00, 0x00, 0x00, 0xfa, 0xf0, 0xff, 0xff, 0x00, 0x00, 0x00, 0x01, 0x18, 0x00, 0x00, 0x00, 
    0x28, 0x00, 0x00, 0x00, 0x48, 0x00, 0x00, 0x00, 0x16, 0x00, 0x00, 0x00, 0x00, 0x00, 0x00, 0x09, 
    0x70, 0x00, 0x00, 0x00, 0x04, 0x00, 0x00, 0x00, 0xff, 0xff, 0xff, 0xff, 0x31, 0x00, 0x00, 0x00, 
    0x28, 0x00, 0x00, 0x00, 0x08, 0x00, 0x00, 0x00, 0xe4, 0xf0, 0xff, 0xff, 0x08, 0x00, 0x00, 0x00, 
    0x14, 0x00, 0x00, 0x00, 0x01, 0x00, 0x00, 0x00, 0x80, 0xff, 0xff, 0xff, 0xff, 0xff, 0xff, 0xff, 
    0x00, 0x00, 0x00, 0x00, 0x01, 0x00, 0x00, 0x00, 0x6e, 0xde, 0x19, 0x3d, 0x2c, 0x00, 0x00, 0x00, 
    0x66, 0x75, 0x6e, 0x63, 0x74, 0x69, 0x6f, 0x6e, 0x61, 0x6c, 0x5f, 0x31, 0x2f, 0x72, 0x65, 0x5f, 
    0x6c, 0x75, 0x5f, 0x32, 0x5f, 0x31, 0x2f, 0x52, 0x65, 0x6c, 0x75, 0x3b, 0x66, 0x75, 0x6e, 0x63, 
    0x74, 0x69, 0x6f, 0x6e, 0x61, 0x6c, 0x5f, 0x31, 0x2f, 0x41, 0x64, 0x64, 0x00, 0x00, 0x00, 0x00, 
    0x04, 0x00, 0x00, 0x00, 0x01, 0x00, 0x00, 0x00, 0x31, 0x00, 0x00, 0x00, 0x28, 0x00, 0x00, 0x00, 
    0x08, 0x00, 0x00, 0x00, 0x9a, 0xf1, 0xff, 0xff, 0x00, 0x00, 0x00, 0x01, 0x18, 0x00, 0x00, 0x00, 
    0x28, 0x00, 0x00, 0x00, 0x44, 0x00, 0x00, 0x00, 0x15, 0x00, 0x00, 0x00, 0x00, 0x00, 0x00, 0x09, 
    0xc8, 0x00, 0x00, 0x00, 0x04, 0x00, 0x00, 0x00, 0xff, 0xff, 0xff, 0xff, 0x31, 0x00, 0x00, 0x00, 
    0x28, 0x00, 0x00, 0x00, 0x08, 0x00, 0x00, 0x00, 0x84, 0xf1, 0xff, 0xff, 0x08, 0x00, 0x00, 0x00, 
    0x10, 0x00, 0x00, 0x00, 0x01, 0x00, 0x00, 0x00, 0xe8, 0xff, 0xff, 0xff, 0xff, 0xff, 0xff, 0xff, 
    0x01, 0x00, 0x00, 0x00, 0xf5, 0xdf, 0x81, 0x3d, 0x8b, 0x00, 0x00, 0x00, 0x66, 0x75, 0x6e, 0x63, 
    0x74, 0x69, 0x6f, 0x6e, 0x61, 0x6c, 0x5f, 0x31, 0x2f, 0x62, 0x61, 0x74, 0x63, 0x68, 0x5f, 0x6e, 
    0x6f, 0x72, 0x6d, 0x61, 0x6c, 0x69, 0x7a, 0x61, 0x74, 0x69, 0x6f, 0x6e, 0x5f, 0x32, 0x5f, 0x31, 
    0x2f, 0x62, 0x61, 0x74, 0x63, 0x68, 0x6e, 0x6f, 0x72, 0x6d, 0x2f, 0x61, 0x64, 0x64, 0x5f, 0x31, 
    0x3b, 0x66, 0x75, 0x6e, 0x63, 0x74, 0x69, 0x6f, 0x6e, 0x61, 0x6c, 0x5f, 0x31, 0x2f, 0x63, 0x6f, 
    0x6e, 0x76, 0x32, 0x64, 0x5f, 0x32, 0x5f, 0x31, 0x2f, 0x63, 0x6f, 0x6e, 0x76, 0x6f, 0x6c, 0x75, 
    0x74, 0x69, 0x6f, 0x6e, 0x3b, 0x66, 0x75, 0x6e, 0x63, 0x74, 0x69, 0x6f, 0x6e, 0x61, 0x6c, 0x5f, 
    0x31, 0x2f, 0x62, 0x61, 0x74, 0x63, 0x68, 0x5f, 0x6e, 0x6f, 0x72, 0x6d, 0x61, 0x6c, 0x69, 0x7a, 
    0x61, 0x74, 0x69, 0x6f, 0x6e, 0x5f, 0x32, 0x5f, 0x31, 0x2f, 0x62, 0x61, 0x74, 0x63, 0x68, 0x6e, 
    0x6f, 0x72, 0x6d, 0x2f, 0x73, 0x75, 0x62, 0x00, 0x04, 0x00, 0x00, 0x00, 0x01, 0x00, 0x00, 0x00, 
    0x31, 0x00, 0x00, 0x00, 0x28, 0x00, 0x00, 0x00, 0x08, 0x00, 0x00, 0x00, 0x92, 0xf2, 0xff, 0xff, 
    0x00, 0x00, 0x00, 0x01, 0x18, 0x00, 0x00, 0x00, 0x28, 0x00, 0x00, 0x00, 0x48, 0x00, 0x00, 0x00, 
    0x14, 0x00, 0x00, 0x00, 0x00, 0x00, 0x00, 0x09, 0xe8, 0x00, 0x00, 0x00, 0x04, 0x00, 0x00, 0x00, 
    0xff, 0xff, 0xff, 0xff, 0x31, 0x00, 0x00, 0x00, 0x28, 0x00, 0x00, 0x00, 0x08, 0x00, 0x00, 0x00, 
    0x7c, 0xf2, 0xff, 0xff, 0x08, 0x00, 0x00, 0x00, 0x14, 0x00, 0x00, 0x00, 0x01, 0x00, 0x00, 0x00, 
    0x80, 0xff, 0xff, 0xff, 0xff, 0xff, 0xff, 0xff, 0x00, 0x00, 0x00, 0x00, 0x01, 0x00, 0x00, 0x00, 
    0xa6, 0x9f, 0xf2, 0x3c, 0xa7, 0x00, 0x00, 0x00, 0x66, 0x75, 0x6e, 0x63, 0x74, 0x69, 0x6f, 0x6e, 
    0x61, 0x6c, 0x5f, 0x31, 0x2f, 0x72, 0x65, 0x5f, 0x6c, 0x75, 0x5f, 0x31, 0x5f, 0x32, 0x2f, 0x52, 
    0x65, 0x6c, 0x75, 0x3b, 0x66, 0x75, 0x6e, 0x63, 0x74, 0x69, 0x6f, 0x6e, 0x61, 0x6c, 0x5f, 0x31, 
    0x2f, 0x62, 0x61, 0x74, 0x63, 0x68, 0x5f, 0x6e, 0x6f, 0x72, 0x6d, 0x61, 0x6c, 0x69, 0x7a, 0x61, 
    0x74, 0x69, 0x6f, 0x6e, 0x5f, 0x31, 0x5f, 0x32, 0x2f, 0x62, 0x61, 0x74, 0x63, 0x68, 0x6e, 0x6f, 
    0x72, 0x6d, 0x2f, 0x61, 0x64, 0x64, 0x5f, 0x31, 0x3b, 0x66, 0x75, 0x6e, 0x63, 0x74, 0x69, 0x6f, 
    0x6e, 0x61, 0x6c, 0x5f, 0x31, 0x2f, 0x63, 0x6f, 0x6e, 0x76, 0x32, 0x64, 0x5f, 0x31, 0x5f, 0x32, 
    0x2f, 0x63, 0x6f, 0x6e, 0x76, 0x6f, 0x6c, 0x75, 0x74, 0x69, 0x6f, 0x6e, 0x3b, 0x66, 0x75, 0x6e, 
    0x63, 0x74, 0x69, 0x6f, 0x6e, 0x61, 0x6c, 0x5f, 0x31, 0x2f, 0x62, 0x61, 0x74, 0x63, 0x68, 0x5f, 
    0x6e, 0x6f, 0x72, 0x6d, 0x61, 0x6c, 0x69, 0x7a, 0x61, 0x74, 0x69, 0x6f, 0x6e, 0x5f, 0x31, 0x5f, 
    0x32, 0x2f, 0x62, 0x61, 0x74, 0x63, 0x68, 0x6e, 0x6f, 0x72, 0x6d, 0x2f, 0x73, 0x75, 0x62, 0x00, 
    0x04, 0x00, 0x00, 0x00, 0x01, 0x00, 0x00, 0x00, 0x31, 0x00, 0x00, 0x00, 0x28, 0x00, 0x00, 0x00, 
    0x08, 0x00, 0x00, 0x00, 0xaa, 0xf3, 0xff, 0xff, 0x00, 0x00, 0x00, 0x01, 0x18, 0x00, 0x00, 0x00, 
    0x28, 0x00, 0x00, 0x00, 0x44, 0x00, 0x00, 0x00, 0x13, 0x00, 0x00, 0x00, 0x00, 0x00, 0x00, 0x09, 
    0xe0, 0x00, 0x00, 0x00, 0x04, 0x00, 0x00, 0x00, 0xff, 0xff, 0xff, 0xff, 0x31, 0x00, 0x00, 0x00, 
    0x28, 0x00, 0x00, 0x00, 0x08, 0x00, 0x00, 0x00, 0x94, 0xf3, 0xff, 0xff, 0x08, 0x00, 0x00, 0x00, 
    0x10, 0x00, 0x00, 0x00, 0x01, 0x00, 0x00, 0x00, 0x80, 0xff, 0xff, 0xff, 0xff, 0xff, 0xff, 0xff, 
    0x01, 0x00, 0x00, 0x00, 0xd1, 0xef, 0xf2, 0x3c, 0xa0, 0x00, 0x00, 0x00, 0x66, 0x75, 0x6e, 0x63, 
    0x74, 0x69, 0x6f, 0x6e, 0x61, 0x6c, 0x5f, 0x31, 0x2f, 0x72, 0x65, 0x5f, 0x6c, 0x75, 0x5f, 0x31, 
    0x2f, 0x52, 0x65, 0x6c, 0x75, 0x3b, 0x66, 0x75, 0x6e, 0x63, 0x74, 0x69, 0x6f, 0x6e, 0x61, 0x6c, 
    0x5f, 0x31, 0x2f, 0x62, 0x61, 0x74, 0x63, 0x68, 0x5f, 0x6e, 0x6f, 0x72, 0x6d, 0x61, 0x6c, 0x69, 
    0x7a, 0x61, 0x74, 0x69, 0x6f, 0x6e, 0x5f, 0x31, 0x2f, 0x62, 0x61, 0x74, 0x63, 0x68, 0x6e, 0x6f, 
    0x72, 0x6d, 0x2f, 0x61, 0x64, 0x64, 0x5f, 0x31, 0x3b, 0x66, 0x75, 0x6e, 0x63, 0x74, 0x69, 0x6f, 
    0x6e, 0x61, 0x6c, 0x5f, 0x31, 0x2f, 0x63, 0x6f, 0x6e, 0x76, 0x32, 0x64, 0x5f, 0x31, 0x2f, 0x63, 
    0x6f, 0x6e, 0x76, 0x6f, 0x6c, 0x75, 0x74, 0x69, 0x6f, 0x6e, 0x3b, 0x66, 0x75, 0x6e, 0x63, 0x74, 
    0x69, 0x6f, 0x6e, 0x61, 0x6c, 0x5f, 0x31, 0x2f, 0x62, 0x61, 0x74, 0x63, 0x68, 0x5f, 0x6e, 0x6f, 
    0x72, 0x6d, 0x61, 0x6c, 0x69, 0x7a, 0x61, 0x74, 0x69, 0x6f, 0x6e, 0x5f, 0x31, 0x2f, 0x62, 0x61, 
    0x74, 0x63, 0x68, 0x6e, 0x6f, 0x72, 0x6d, 0x2f, 0x73, 0x75, 0x62, 0x31, 0x00, 0x00, 0x00, 0x00, 
    0x04, 0x00, 0x00, 0x00, 0x01, 0x00, 0x00, 0x00, 0x31, 0x00, 0x00, 0x00, 0x28, 0x00, 0x00, 0x00, 
    0x08, 0x00, 0x00, 0x00, 0x12, 0xf5, 0xff, 0xff, 0x00, 0x00, 0x00, 0x01, 0x14, 0x00, 0x00, 0x00, 
    0x88, 0x00, 0x00, 0x00, 0x12, 0x00, 0x00, 0x00, 0x00, 0x00, 0x00, 0x09, 0x94, 0x00, 0x00, 0x00, 
    0x8c, 0xf4, 0xff, 0xff, 0x08, 0x00, 0x00, 0x00, 0x4c, 0x00, 0x00, 0x00, 0x08, 0x00, 0x00, 0x00, 
    0x00, 0x00, 0x00, 0x00, 0x00, 0x00, 0x00, 0x00, 0x00, 0x00, 0x00, 0x00, 0x00, 0x00, 0x00, 0x00, 
    0x00, 0x00, 0x00, 0x00, 0x00, 0x00, 0x00, 0x00, 0x00, 0x00, 0x00, 0x00, 0x00, 0x00, 0x00, 0x00, 
    0x00, 0x00, 0x00, 0x00, 0x00, 0x00, 0x00, 0x00, 0x00, 0x00, 0x00, 0x00, 0x00, 0x00, 0x00, 0x00, 
    0x00, 0x00, 0x00, 0x00, 0x00, 0x00, 0x00, 0x00, 0x00, 0x00, 0x00, 0x00, 0x00, 0x00, 0x00, 0x00, 
    0x00, 0x00, 0x00, 0x00, 0x08, 0x00, 0x00, 0x00, 0x0b, 0x8a, 0xaf, 0x3b, 0x4a, 0xe1, 0x2c, 0x3b, 
    0x18, 0x46, 0x40, 0x3b, 0x23, 0xf6, 0x20, 0x3c, 0xf1, 0x33, 0xf4, 0x3b, 0xa1, 0xe7, 0xad, 0x3b, 
    0xd6, 0xeb, 0x90, 0x3b, 0x6a, 0x81, 0x1a, 0x3b, 0x13, 0x00, 0x00, 0x00, 0x74, 0x66, 0x6c, 0x2e, 
    0x70, 0x73, 0x65, 0x75, 0x64, 0x6f, 0x5f, 0x71, 0x63, 0x6f, 0x6e, 0x73, 0x74, 0x31, 0x35, 0x00, 
    0x04, 0x00, 0x00, 0x00, 0x08, 0x00, 0x00, 0x00, 0x03, 0x00, 0x00, 0x00, 0x03, 0x00, 0x00, 0x00, 
    0x01, 0x00, 0x00, 0x00, 0xd2, 0xf5, 0xff, 0xff, 0x00, 0x00, 0x00, 0x01, 0x14, 0x00, 0x00, 0x00, 
    0x84, 0x00, 0x00, 0x00, 0x11, 0x00, 0x00, 0x00, 0x00, 0x00, 0x00, 0x02, 0x90, 0x00, 0x00, 0x00, 
    0x4c, 0xf5, 0xff, 0xff, 0x08, 0x00, 0x00, 0x00, 0x48, 0x00, 0x00, 0x00, 0x08, 0x00, 0x00, 0x00, 
    0x00, 0x00, 0x00, 0x00, 0x00, 0x00, 0x00, 0x00, 0x00, 0x00, 0x00, 0x00, 0x00, 0x00, 0x00, 0x00, 
    0x00, 0x00, 0x00, 0x00, 0x00, 0x00, 0x00, 0x00, 0x00, 0x00, 0x00, 0x00, 0x00, 0x00, 0x00, 0x00, 
    0x00, 0x00, 0x00, 0x00, 0x00, 0x00, 0x00, 0x00, 0x00, 0x00, 0x00, 0x00, 0x00, 0x00, 0x00, 0x00, 
    0x00, 0x00, 0x00, 0x00, 0x00, 0x00, 0x00, 0x00, 0x00, 0x00, 0x00, 0x00, 0x00, 0x00, 0x00, 0x00, 
    0x08, 0x00, 0x00, 0x00, 0x83, 0xce, 0x5e, 0x39, 0x74, 0x6e, 0xdb, 0x38, 0x21, 0x0c, 0xf4, 0x38, 
    0xb7, 0x4d, 0xcc, 0x39, 0xce, 0xfa, 0x9a, 0x39, 0x6f, 0xbb, 0x5c, 0x39, 0xb6, 0xf1, 0x37, 0x39, 
    0xf7, 0x1b, 0xc4, 0x38, 0x13, 0x00, 0x00, 0x00, 0x74, 0x66, 0x6c, 0x2e, 0x70, 0x73, 0x65, 0x75, 
    0x64, 0x6f, 0x5f, 0x71, 0x63, 0x6f, 0x6e, 0x73, 0x74, 0x31, 0x34, 0x00, 0x01, 0x00, 0x00, 0x00, 
    0x08, 0x00, 0x00, 0x00, 0x82, 0xf6, 0xff, 0xff, 0x00, 0x00, 0x00, 0x01, 0x14, 0x00, 0x00, 0x00, 
    0x88, 0x00, 0x00, 0x00, 0x10, 0x00, 0x00, 0x00, 0x00, 0x00, 0x00, 0x09, 0x94, 0x00, 0x00, 0x00, 
    0xfc, 0xf5, 0xff, 0xff, 0x08, 0x00, 0x00, 0x00, 0x4c, 0x00, 0x00, 0x00, 0x08, 0x00, 0x00, 0x00, 
    0x00, 0x00, 0x00, 0x00, 0x00, 0x00, 0x00, 0x00, 0x00, 0x00, 0x00, 0x00, 0x00, 0x00, 0x00, 0x00, 
    0x00, 0x00, 0x00, 0x00, 0x00, 0x00, 0x00, 0x00, 0x00, 0x00, 0x00, 0x00, 0x00, 0x00, 0x00, 0x00, 
    0x00, 0x00, 0x00, 0x00, 0x00, 0x00, 0x00, 0x00, 0x00, 0x00, 0x00, 0x00, 0x00, 0x00, 0x00, 0x00, 
    0x00, 0x00, 0x00, 0x00, 0x00, 0x00, 0x00, 0x00, 0x00, 0x00, 0x00, 0x00, 0x00, 0x00, 0x00, 0x00, 
    0x00, 0x00, 0x00, 0x00, 0x08, 0x00, 0x00, 0x00, 0x3b, 0x2f, 0x9c, 0x3b, 0xc4, 0x56, 0x64, 0x3b, 
    0xd9, 0xc8, 0x79, 0x3b, 0xe9, 0xbe, 0x56, 0x3b, 0x87, 0xb0, 0xc8, 0x3b, 0x48, 0x45, 0x1e, 0x3b, 
    0x69, 0x22, 0x3b, 0x3b, 0x18, 0xa0, 0x07, 0x3b, 0x13, 0x00, 0x00, 0x00, 0x74, 0x66, 0x6c, 0x2e, 
    0x70, 0x73, 0x65, 0x75, 0x64, 0x6f, 0x5f, 0x71, 0x63, 0x6f, 0x6e, 0x73, 0x74, 0x31, 0x33, 0x00, 
    0x04, 0x00, 0x00, 0x00, 0x08, 0x00, 0x00, 0x00, 0x03, 0x00, 0x00, 0x00, 0x03, 0x00, 0x00, 0x00, 
    0x08, 0x00, 0x00, 0x00, 0x42, 0xf7, 0xff, 0xff, 0x00, 0x00, 0x00, 0x01, 0x14, 0x00, 0x00, 0x00, 
    0x84, 0x00, 0x00, 0x00, 0x0f, 0x00, 0x00, 0x00, 0x00, 0x00, 0x00, 0x02, 0x90, 0x00, 0x00, 0x00, 
    0xbc, 0xf6, 0xff, 0xff, 0x08, 0x00, 0x00, 0x00, 0x48, 0x00, 0x00, 0x00, 0x08, 0x00, 0x00, 0x00, 
    0x00, 0x00, 0x00, 0x00, 0x00, 0x00, 0x00, 0x00, 0x00, 0x00, 0x00, 0x00, 0x00, 0x00, 0x00, 0x00, 
    0x00, 0x00, 0x00, 0x00, 0x00, 0x00, 0x00, 0x00, 0x00, 0x00, 0x00, 0x00, 0x00, 0x00, 0x00, 0x00, 
    0x00, 0x00, 0x00, 0x00, 0x00, 0x00, 0x00, 0x00, 0x00, 0x00, 0x00, 0x00, 0x00, 0x00, 0x00, 0x00, 
    0x00, 0x00, 0x00, 0x00, 0x00, 0x00, 0x00, 0x00, 0x00, 0x00, 0x00, 0x00, 0x00, 0x00, 0x00, 0x00, 
    0x08, 0x00, 0x00, 0x00, 0xf5, 0x36, 0x14, 0x39, 0xed, 0xaf, 0xd8, 0x38, 0xdc, 0x09, 0xed, 0x38, 
    0xa4, 0xc9, 0xcb, 0x38, 0xe0, 0x72, 0x3e, 0x39, 0xc2, 0x31, 0x96, 0x38, 0xd5, 0x95, 0xb1, 0x38, 
    0x64, 0xb4, 0x80, 0x38, 0x13, 0x00, 0x00, 0x00, 0x74, 0x66, 0x6c, 0x2e, 0x70, 0x73, 0x65, 0x75, 
    0x64, 0x6f, 0x5f, 0x71, 0x63, 0x6f, 0x6e, 0x73, 0x74, 0x31, 0x32, 0x00, 0x01, 0x00, 0x00, 0x00, 
    0x08, 0x00, 0x00, 0x00, 0xf2, 0xf7, 0xff, 0xff, 0x00, 0x00, 0x00, 0x01, 0x14, 0x00, 0x00, 0x00, 
    0x88, 0x00, 0x00, 0x00, 0x0e, 0x00, 0x00, 0x00, 0x00, 0x00, 0x00, 0x09, 0x94, 0x00, 0x00, 0x00, 
    0x6c, 0xf7, 0xff, 0xff, 0x08, 0x00, 0x00, 0x00, 0x4c, 0x00, 0x00, 0x00, 0x08, 0x00, 0x00, 0x00, 
    0x00, 0x00, 0x00, 0x00, 0x00, 0x00, 0x00, 0x00, 0x00, 0x00, 0x00, 0x00, 0x00, 0x00, 0x00, 0x00, 
    0x00, 0x00, 0x00, 0x00, 0x00, 0x00, 0x00, 0x00, 0x00, 0x00, 0x00, 0x00, 0x00, 0x00, 0x00, 0x00, 
    0x00, 0x00, 0x00, 0x00, 0x00, 0x00, 0x00, 0x00, 0x00, 0x00, 0x00, 0x00, 0x00, 0x00, 0x00, 0x00, 
    0x00, 0x00, 0x00, 0x00, 0x00, 0x00, 0x00, 0x00, 0x00, 0x00, 0x00, 0x00, 0x00, 0x00, 0x00, 0x00, 
    0x00, 0x00, 0x00, 0x00, 0x08, 0x00, 0x00, 0x00, 0x44, 0x3a, 0x94, 0x3b, 0xdd, 0xec, 0x91, 0x3b, 
    0xb9, 0x67, 0xb8, 0x3b, 0x5e, 0x12, 0xa1, 0x3b, 0xdc, 0xd4, 0xa3, 0x3b, 0x48, 0xb4, 0x34, 0x3b, 
    0xff, 0x2d, 0xa6, 0x3b, 0x3b, 0x1c, 0x3d, 0x3b, 0x13, 0x00, 0x00, 0x00, 0x74, 0x66, 0x6c, 0x2e, 
    0x70, 0x73, 0x65, 0x75, 0x64, 0x6f, 0x5f, 0x71, 0x63, 0x6f, 0x6e, 0x73, 0x74, 0x31, 0x31, 0x00, 
    0x04, 0x00, 0x00, 0x00, 0x08, 0x00, 0x00, 0x00, 0x03, 0x00, 0x00, 0x00, 0x03, 0x00, 0x00, 0x00, 
    0x08, 0x00, 0x00, 0x00, 0xb2, 0xf8, 0xff, 0xff, 0x00, 0x00, 0x00, 0x01, 0x14, 0x00, 0x00, 0x00, 
    0x84, 0x00, 0x00, 0x00, 0x0d, 0x00, 0x00, 0x00, 0x00, 0x00, 0x00, 0x02, 0x90, 0x00, 0x00, 0x00, 
    0x2c, 0xf8, 0xff, 0xff, 0x08, 0x00, 0x00, 0x00, 0x48, 0x00, 0x00, 0x00, 0x08, 0x00, 0x00, 0x00, 
    0x00, 0x00, 0x00, 0x00, 0x00, 0x00, 0x00, 0x00, 0x00, 0x00, 0x00, 0x00, 0x00, 0x00, 0x00, 0x00, 
    0x00, 0x00, 0x00, 0x00, 0x00, 0x00, 0x00, 0x00, 0x00, 0x00, 0x00, 0x00, 0x00, 0x00, 0x00, 0x00, 
    0x00, 0x00, 0x00, 0x00, 0x00, 0x00, 0x00, 0x00, 0x00, 0x00, 0x00, 0x00, 0x00, 0x00, 0x00, 0x00, 
    0x00, 0x00, 0x00, 0x00, 0x00, 0x00, 0x00, 0x00, 0x00, 0x00, 0x00, 0x00, 0x00, 0x00, 0x00, 0x00, 
    0x08, 0x00, 0x00, 0x00, 0x85, 0x7b, 0x0c, 0x39, 0xea, 0x4c, 0x0a, 0x39, 0x0d, 0xc5, 0x2e, 0x39, 
    0xd0, 0xa7, 0x18, 0x39, 0x63, 0x45, 0x1b, 0x39, 0x1d, 0x43, 0xab, 0x38, 0x1d, 0x7f, 0x1d, 0x39, 
    0x9f, 0x3a, 0xb3, 0x38, 0x13, 0x00, 0x00, 0x00, 0x74, 0x66, 0x6c, 0x2e, 0x70, 0x73, 0x65, 0x75, 
    0x64, 0x6f, 0x5f, 0x71, 0x63, 0x6f, 0x6e, 0x73, 0x74, 0x31, 0x30, 0x00, 0x01, 0x00, 0x00, 0x00, 
    0x08, 0x00, 0x00, 0x00, 0x62, 0xf9, 0xff, 0xff, 0x00, 0x00, 0x00, 0x01, 0x14, 0x00, 0x00, 0x00, 
    0x88, 0x00, 0x00, 0x00, 0x0c, 0x00, 0x00, 0x00, 0x00, 0x00, 0x00, 0x09, 0x94, 0x00, 0x00, 0x00, 
    0xdc, 0xf8, 0xff, 0xff, 0x08, 0x00, 0x00, 0x00, 0x4c, 0x00, 0x00, 0x00, 0x08, 0x00, 0x00, 0x00, 
    0x00, 0x00, 0x00, 0x00, 0x00, 0x00, 0x00, 0x00, 0x00, 0x00, 0x00, 0x00, 0x00, 0x00, 0x00, 0x00, 
    0x00, 0x00, 0x00, 0x00, 0x00, 0x00, 0x00, 0x00, 0x00, 0x00, 0x00, 0x00, 0x00, 0x00, 0x00, 0x00, 
    0x00, 0x00, 0x00, 0x00, 0x00, 0x00, 0x00, 0x00, 0x00, 0x00, 0x00, 0x00, 0x00, 0x00, 0x00, 0x00, 
    0x00, 0x00, 0x00, 0x00, 0x00, 0x00, 0x00, 0x00, 0x00, 0x00, 0x00, 0x00, 0x00, 0x00, 0x00, 0x00, 
    0x00, 0x00, 0x00, 0x00, 0x08, 0x00, 0x00, 0x00, 0x03, 0xae, 0x27, 0x3b, 0x68, 0xb3, 0xdf, 0x3a, 
    0x1e, 0x9d, 0xf7, 0x3a, 0xfa, 0x24, 0x56, 0x3b, 0xe1, 0xba, 0x93, 0x3b, 0x90, 0x87, 0x1d, 0x3b, 
    0xc8, 0x4c, 0x1b, 0x3b, 0x0b, 0x27, 0xad, 0x3a, 0x12, 0x00, 0x00, 0x00, 0x74, 0x66, 0x6c, 0x2e, 
    0x70, 0x73, 0x65, 0x75, 0x64, 0x6f, 0x5f, 0x71, 0x63, 0x6f, 0x6e, 0x73, 0x74, 0x39, 0x00, 0x00, 
    0x04, 0x00, 0x00, 0x00, 0x08, 0x00, 0x00, 0x00, 0x03, 0x00, 0x00, 0x00, 0x03, 0x00, 0x00, 0x00, 
    0x08, 0x00, 0x00, 0x00, 0x22, 0xfa, 0xff, 0xff, 0x00, 0x00, 0x00, 0x01, 0x14, 0x00, 0x00, 0x00, 
    0x84, 0x00, 0x00, 0x00, 0x0b, 0x00, 0x00, 0x00, 0x00, 0x00, 0x00, 0x02, 0x90, 0x00, 0x00, 0x00, 
    0x9c, 0xf9, 0xff, 0xff, 0x08, 0x00, 0x00, 0x00, 0x48, 0x00, 0x00, 0x00, 0x08, 0x00, 0x00, 0x00, 
    0x00, 0x00, 0x00, 0x00, 0x00, 0x00, 0x00, 0x00, 0x00, 0x00, 0x00, 0x00, 0x00, 0x00, 0x00, 0x00, 
    0x00, 0x00, 0x00, 0x00, 0x00, 0x00, 0x00, 0x00, 0x00, 0x00, 0x00, 0x00, 0x00, 0x00, 0x00, 0x00, 
    0x00, 0x00, 0x00, 0x00, 0x00, 0x00, 0x00, 0x00, 0x00, 0x00, 0x00, 0x00, 0x00, 0x00, 0x00, 0x00, 
    0x00, 0x00, 0x00, 0x00, 0x00, 0x00, 0x00, 0x00, 0x00, 0x00, 0x00, 0x00, 0x00, 0x00, 0x00, 0x00, 
    0x08, 0x00, 0x00, 0x00, 0x61, 0x91, 0xc9, 0x38, 0x97, 0x74, 0x86, 0x38, 0x0c, 0xd4, 0x94, 0x38, 
    0x29, 0xb6, 0x00, 0x39, 0x18, 0x96, 0x31, 0x39, 0xc9, 0x5d, 0xbd, 0x38, 0xa6, 0xaf, 0xba, 0x38, 
    0x90, 0x25, 0x50, 0x38, 0x12, 0x00, 0x00, 0x00, 0x74, 0x66, 0x6c, 0x2e, 0x70, 0x73, 0x65, 0x75, 
    0x64, 0x6f, 0x5f, 0x71, 0x63, 0x6f, 0x6e, 0x73, 0x74, 0x38, 0x00, 0x00, 0x01, 0x00, 0x00, 0x00, 
    0x08, 0x00, 0x00, 0x00, 0xd2, 0xfa, 0xff, 0xff, 0x00, 0x00, 0x00, 0x01, 0x14, 0x00, 0x00, 0x00, 
    0x88, 0x00, 0x00, 0x00, 0x0a, 0x00, 0x00, 0x00, 0x00, 0x00, 0x00, 0x09, 0x94, 0x00, 0x00, 0x00, 
    0x4c, 0xfa, 0xff, 0xff, 0x08, 0x00, 0x00, 0x00, 0x4c, 0x00, 0x00, 0x00, 0x08, 0x00, 0x00, 0x00, 
    0x00, 0x00, 0x00, 0x00, 0x00, 0x00, 0x00, 0x00, 0x00, 0x00, 0x00, 0x00, 0x00, 0x00, 0x00, 0x00, 
    0x00, 0x00, 0x00, 0x00, 0x00, 0x00, 0x00, 0x00, 0x00, 0x00, 0x00, 0x00, 0x00, 0x00, 0x00, 0x00, 
    0x00, 0x00, 0x00, 0x00, 0x00, 0x00, 0x00, 0x00, 0x00, 0x00, 0x00, 0x00, 0x00, 0x00, 0x00, 0x00, 
    0x00, 0x00, 0x00, 0x00, 0x00, 0x00, 0x00, 0x00, 0x00, 0x00, 0x00, 0x00, 0x00, 0x00, 0x00, 0x00, 
    0x00, 0x00, 0x00, 0x00, 0x08, 0x00, 0x00, 0x00, 0xfb, 0xbf, 0x4a, 0x3b, 0xe8, 0xb0, 0x84, 0x3b, 
    0xd2, 0xaa, 0x64, 0x3b, 0xbf, 0x83, 0xc9, 0x3b, 0xdf, 0xc5, 0x52, 0x3b, 0x19, 0x2c, 0xc9, 0x3b, 
    0x19, 0x42, 0x8e, 0x3b, 0xee, 0x5b, 0x60, 0x3b, 0x12, 0x00, 0x00, 0x00, 0x74, 0x66, 0x6c, 0x2e, 
    0x70, 0x73, 0x65, 0x75, 0x64, 0x6f, 0x5f, 0x71, 0x63, 0x6f, 0x6e, 0x73, 0x74, 0x37, 0x00, 0x00, 
    0x04, 0x00, 0x00, 0x00, 0x08, 0x00, 0x00, 0x00, 0x03, 0x00, 0x00, 0x00, 0x03, 0x00, 0x00, 0x00, 
    0x08, 0x00, 0x00, 0x00, 0x92, 0xfb, 0xff, 0xff, 0x00, 0x00, 0x00, 0x01, 0x14, 0x00, 0x00, 0x00, 
    0x84, 0x00, 0x00, 0x00, 0x09, 0x00, 0x00, 0x00, 0x00, 0x00, 0x00, 0x02, 0x90, 0x00, 0x00, 0x00, 
    0x0c, 0xfb, 0xff, 0xff, 0x08, 0x00, 0x00, 0x00, 0x48, 0x00, 0x00, 0x00, 0x08, 0x00, 0x00, 0x00, 
    0x00, 0x00, 0x00, 0x00, 0x00, 0x00, 0x00, 0x00, 0x00, 0x00, 0x00, 0x00, 0x00, 0x00, 0x00, 0x00, 
    0x00, 0x00, 0x00, 0x00, 0x00, 0x00, 0x00, 0x00, 0x00, 0x00, 0x00, 0x00, 0x00, 0x00, 0x00, 0x00, 
    0x00, 0x00, 0x00, 0x00, 0x00, 0x00, 0x00, 0x00, 0x00, 0x00, 0x00, 0x00, 0x00, 0x00, 0x00, 0x00, 
    0x00, 0x00, 0x00, 0x00, 0x00, 0x00, 0x00, 0x00, 0x00, 0x00, 0x00, 0x00, 0x00, 0x00, 0x00, 0x00, 
    0x08, 0x00, 0x00, 0x00, 0x56, 0xb2, 0xaa, 0x38, 0x55, 0x6d, 0xdf, 0x38, 0x41, 0x84, 0xc0, 0x38, 
    0x18, 0xa8, 0x29, 0x39, 0x85, 0x73, 0xb1, 0x38, 0x4e, 0x5e, 0x29, 0x39, 0x51, 0x89, 0xef, 0x38, 
    0xb9, 0xe3, 0xbc, 0x38, 0x12, 0x00, 0x00, 0x00, 0x74, 0x66, 0x6c, 0x2e, 0x70, 0x73, 0x65, 0x75, 
    0x64, 0x6f, 0x5f, 0x71, 0x63, 0x6f, 0x6e, 0x73, 0x74, 0x36, 0x00, 0x00, 0x01, 0x00, 0x00, 0x00, 
    0x08, 0x00, 0x00, 0x00, 0x42, 0xfc, 0xff, 0xff, 0x00, 0x00, 0x00, 0x01, 0x14, 0x00, 0x00, 0x00, 
    0x88, 0x00, 0x00, 0x00, 0x08, 0x00, 0x00, 0x00, 0x00, 0x00, 0x00, 0x09, 0x94, 0x00, 0x00, 0x00, 
    0xbc, 0xfb, 0xff, 0xff, 0x08, 0x00, 0x00, 0x00, 0x4c, 0x00, 0x00, 0x00, 0x08, 0x00, 0x00, 0x00, 
    0x00, 0x00, 0x00, 0x00, 0x00, 0x00, 0x00, 0x00, 0x00, 0x00, 0x00, 0x00, 0x00, 0x00, 0x00, 0x00, 
    0x00, 0x00, 0x00, 0x00, 0x00, 0x00, 0x00, 0x00, 0x00, 0x00, 0x00, 0x00, 0x00, 0x00, 0x00, 0x00, 
    0x00, 0x00, 0x00, 0x00, 0x00, 0x00, 0x00, 0x00, 0x00, 0x00, 0x00, 0x00, 0x00, 0x00, 0x00, 0x00, 
    0x00, 0x00, 0x00, 0x00, 0x00, 0x00, 0x00, 0x00, 0x00, 0x00, 0x00, 0x00, 0x00, 0x00, 0x00, 0x00, 
    0x00, 0x00, 0x00, 0x00, 0x08, 0x00, 0x00, 0x00, 0xd6, 0x9d, 0x95, 0x3a, 0xb7, 0xb4, 0xd5, 0x3a, 
    0xba, 0xd3, 0x82, 0x3a, 0x1e, 0x90, 0x8e, 0x3a, 0xdb, 0x6b, 0x69, 0x3a, 0xd3, 0xec, 0x4c, 0x3a, 
    0xe5, 0x15, 0x28, 0x3b, 0xdd, 0x72, 0x67, 0x3a, 0x12, 0x00, 0x00, 0x00, 0x74, 0x66, 0x6c, 0x2e, 
    0x70, 0x73, 0x65, 0x75, 0x64, 0x6f, 0x5f, 0x71, 0x63, 0x6f, 0x6e, 0x73, 0x74, 0x35, 0x00, 0x00, 
    0x04, 0x00, 0x00, 0x00, 0x08, 0x00, 0x00, 0x00, 0x03, 0x00, 0x00, 0x00, 0x03, 0x00, 0x00, 0x00, 
    0x08, 0x00, 0x00, 0x00, 0x02, 0xfd, 0xff, 0xff, 0x00, 0x00, 0x00, 0x01, 0x14, 0x00, 0x00, 0x00, 
    0x84, 0x00, 0x00, 0x00, 0x07, 0x00, 0x00, 0x00, 0x00, 0x00, 0x00, 0x02, 0x90, 0x00, 0x00, 0x00, 
    0x7c, 0xfc, 0xff, 0xff, 0x08, 0x00, 0x00, 0x00, 0x48, 0x00, 0x00, 0x00, 0x08, 0x00, 0x00, 0x00, 
    0x00, 0x00, 0x00, 0x00, 0x00, 0x00, 0x00, 0x00, 0x00, 0x00, 0x00, 0x00, 0x00, 0x00, 0x00, 0x00, 
    0x00, 0x00, 0x00, 0x00, 0x00, 0x00, 0x00, 0x00, 0x00, 0x00, 0x00, 0x00, 0x00, 0x00, 0x00, 0x00, 
    0x00, 0x00, 0x00, 0x00, 0x00, 0x00, 0x00, 0x00, 0x00, 0x00, 0x00, 0x00, 0x00, 0x00, 0x00, 0x00, 
    0x00, 0x00, 0x00, 0x00, 0x00, 0x00, 0x00, 0x00, 0x00, 0x00, 0x00, 0x00, 0x00, 0x00, 0x00, 0x00, 
    0x08, 0x00, 0x00, 0x00, 0x03, 0xc4, 0x8e, 0x38, 0xa1, 0xeb, 0xcb, 0x38, 0x50, 0xac, 0x79, 0x38, 
    0xfa, 0x08, 0x88, 0x38, 0xaa, 0xbb, 0x5e, 0x38, 0xab, 0x8a, 0x43, 0x38, 0x93, 0x63, 0x20, 0x39, 
    0xcb, 0xd9, 0x5c, 0x38, 0x12, 0x00, 0x00, 0x00, 0x74, 0x66, 0x6c, 0x2e, 0x70, 0x73, 0x65, 0x75, 
    0x64, 0x6f, 0x5f, 0x71, 0x63, 0x6f, 0x6e, 0x73, 0x74, 0x34, 0x00, 0x00, 0x01, 0x00, 0x00, 0x00, 
    0x08, 0x00, 0x00, 0x00, 0xb2, 0xfd, 0xff, 0xff, 0x00, 0x00, 0x00, 0x01, 0x14, 0x00, 0x00, 0x00, 
    0x88, 0x00, 0x00, 0x00, 0x06, 0x00, 0x00, 0x00, 0x00, 0x00, 0x00, 0x09, 0x94, 0x00, 0x00, 0x00, 
    0x2c, 0xfd, 0xff, 0xff, 0x08, 0x00, 0x00, 0x00, 0x4c, 0x00, 0x00, 0x00, 0x08, 0x00, 0x00, 0x00, 
    0x00, 0x00, 0x00, 0x00, 0x00, 0x00, 0x00, 0x00, 0x00, 0x00, 0x00, 0x00, 0x00, 0x00, 0x00, 0x00, 
    0x00, 0x00, 0x00, 0x00, 0x00, 0x00, 0x00, 0x00, 0x00, 0x00, 0x00, 0x00, 0x00, 0x00, 0x00, 0x00, 
    0x00, 0x00, 0x00, 0x00, 0x00, 0x00, 0x00, 0x00, 0x00, 0x00, 0x00, 0x00, 0x00, 0x00, 0x00, 0x00, 
    0x00, 0x00, 0x00, 0x00, 0x00, 0x00, 0x00, 0x00, 0x00, 0x00, 0x00, 0x00, 0x00, 0x00, 0x00, 0x00, 
    0x00, 0x00, 0x00, 0x00, 0x08, 0x00, 0x00, 0x00, 0xd7, 0xad, 0x32, 0x3b, 0xc9, 0xc4, 0x3b, 0x3b, 
    0xbb, 0x87, 0x8b, 0x3b, 0xe6, 0x7a, 0x8a, 0x3b, 0x9d, 0x30, 0x29, 0x3b, 0xb3, 0x78, 0x88, 0x3b, 
    0x7a, 0xd7, 0x35, 0x3b, 0x0f, 0x70, 0x0c, 0x3b, 0x12, 0x00, 0x00, 0x00, 0x74, 0x66, 0x6c, 0x2e, 
    0x70, 0x73, 0x65, 0x75, 0x64, 0x6f, 0x5f, 0x71, 0x63, 0x6f, 0x6e, 0x73, 0x74, 0x33, 0x00, 0x00, 
    0x04, 0x00, 0x00, 0x00, 0x08, 0x00, 0x00, 0x00, 0x03, 0x00, 0x00, 0x00, 0x03, 0x00, 0x00, 0x00, 
    0x08, 0x00, 0x00, 0x00, 0x72, 0xfe, 0xff, 0xff, 0x00, 0x00, 0x00, 0x01, 0x14, 0x00, 0x00, 0x00, 
    0x84, 0x00, 0x00, 0x00, 0x05, 0x00, 0x00, 0x00, 0x00, 0x00, 0x00, 0x02, 0x90, 0x00, 0x00, 0x00, 
    0xec, 0xfd, 0xff, 0xff, 0x08, 0x00, 0x00, 0x00, 0x48, 0x00, 0x00, 0x00, 0x08, 0x00, 0x00, 0x00, 
    0x00, 0x00, 0x00, 0x00, 0x00, 0x00, 0x00, 0x00, 0x00, 0x00, 0x00, 0x00, 0x00, 0x00, 0x00, 0x00, 
    0x00, 0x00, 0x00, 0x00, 0x00, 0x00, 0x00, 0x00, 0x00, 0x00, 0x00, 0x00, 0x00, 0x00, 0x00, 0x00, 
    0x00, 0x00, 0x00, 0x00, 0x00, 0x00, 0x00, 0x00, 0x00, 0x00, 0x00, 0x00, 0x00, 0x00, 0x00, 0x00, 
    0x00, 0x00, 0x00, 0x00, 0x00, 0x00, 0x00, 0x00, 0x00, 0x00, 0x00, 0x00, 0x00, 0x00, 0x00, 0x00, 
    0x08, 0x00, 0x00, 0x00, 0x52, 0x1e, 0xc9, 0x38, 0x7f, 0x59, 0xd3, 0x38, 0x96, 0x0d, 0x1d, 0x39, 
    0xfe, 0xde, 0x1b, 0x39, 0x05, 0x70, 0xbe, 0x38, 0x38, 0x9c, 0x19, 0x39, 0xa3, 0xad, 0xcc, 0x38, 
    0x18, 0x13, 0x9e, 0x38, 0x12, 0x00, 0x00, 0x00, 0x74, 0x66, 0x6c, 0x2e, 0x70, 0x73, 0x65, 0x75, 
    0x64, 0x6f, 0x5f, 0x71, 0x63, 0x6f, 0x6e, 0x73, 0x74, 0x32, 0x00, 0x00, 0x01, 0x00, 0x00, 0x00, 
    0x08, 0x00, 0x00, 0x00, 0x22, 0xff, 0xff, 0xff, 0x00, 0x00, 0x00, 0x01, 0x14, 0x00, 0x00, 0x00, 
    0x40, 0x00, 0x00, 0x00, 0x04, 0x00, 0x00, 0x00, 0x00, 0x00, 0x00, 0x09, 0x4c, 0x00, 0x00, 0x00, 
    0x9c, 0xfe, 0xff, 0xff, 0x08, 0x00, 0x00, 0x00, 0x1c, 0x00, 0x00, 0x00, 0x02, 0x00, 0x00, 0x00, 
    0x00, 0x00, 0x00, 0x00, 0x00, 0x00, 0x00, 0x00, 0x00, 0x00, 0x00, 0x00, 0x00, 0x00, 0x00, 0x00, 
    0x00, 0x00, 0x00, 0x00, 0x02, 0x00, 0x00, 0x00, 0x02, 0x7f, 0xdc, 0x3b, 0x5b, 0x4b, 0xe8, 0x3b, 
    0x12, 0x00, 0x00, 0x00, 0x74, 0x66, 0x6c, 0x2e, 0x70, 0x73, 0x65, 0x75, 0x64, 0x6f, 0x5f, 0x71, 
    0x63, 0x6f, 0x6e, 0x73, 0x74, 0x31, 0x00, 0x00, 0x02, 0x00, 0x00, 0x00, 0x02, 0x00, 0x00, 0x00, 
    0x08, 0x00, 0x00, 0x00, 0x92, 0xff, 0xff, 0xff, 0x00, 0x00, 0x00, 0x01, 0x14, 0x00, 0x00, 0x00, 
    0x40, 0x00, 0x00, 0x00, 0x03, 0x00, 0x00, 0x00, 0x00, 0x00, 0x00, 0x02, 0x4c, 0x00, 0x00, 0x00, 
    0x0c, 0xff, 0xff, 0xff, 0x08, 0x00, 0x00, 0x00, 0x1c, 0x00, 0x00, 0x00, 0x02, 0x00, 0x00, 0x00, 
    0x00, 0x00, 0x00, 0x00, 0x00, 0x00, 0x00, 0x00, 0x00, 0x00, 0x00, 0x00, 0x00, 0x00, 0x00, 0x00, 
    0x00, 0x00, 0x00, 0x00, 0x02, 0x00, 0x00, 0x00, 0xb8, 0xe5, 0xb5, 0x38, 0x58, 0xa1, 0xbf, 0x38, 
    0x11, 0x00, 0x00, 0x00, 0x74, 0x66, 0x6c, 0x2e, 0x70, 0x73, 0x65, 0x75, 0x64, 0x6f, 0x5f, 0x71, 
    0x63, 0x6f, 0x6e, 0x73, 0x74, 0x00, 0x00, 0x00, 0x01, 0x00, 0x00, 0x00, 0x02, 0x00, 0x00, 0x00, 
    0x00, 0x00, 0x16, 0x00, 0x1c, 0x00, 0x18, 0x00, 0x17, 0x00, 0x10, 0x00, 0x0c, 0x00, 0x08, 0x00, 
    0x00, 0x00, 0x00, 0x00, 0x00, 0x00, 0x07, 0x00, 0x16, 0x00, 0x00, 0x00, 0x00, 0x00, 0x00, 0x01, 
    0x18, 0x00, 0x00, 0x00, 0x18, 0x00, 0x00, 0x00, 0x02, 0x00, 0x00, 0x00, 0x00, 0x00, 0x00, 0x02, 
    0x20, 0x00, 0x00, 0x00, 0x04, 0x00, 0x04, 0x00, 0x04, 0x00, 0x00, 0x00, 0x0e, 0x00, 0x00, 0x00, 
    0x61, 0x72, 0x69, 0x74, 0x68, 0x2e, 0x63, 0x6f, 0x6e, 0x73, 0x74, 0x61, 0x6e, 0x74, 0x00, 0x00, 
    0x01, 0x00, 0x00, 0x00, 0x02, 0x00, 0x00, 0x00, 0x00, 0x00, 0x16, 0x00, 0x20, 0x00, 0x1c, 0x00, 
    0x1b, 0x00, 0x14, 0x00, 0x10, 0x00, 0x0c, 0x00, 0x00, 0x00, 0x00, 0x00, 0x08, 0x00, 0x07, 0x00, 
    0x16, 0x00, 0x00, 0x00, 0x00, 0x00, 0x00, 0x01, 0x18, 0x00, 0x00, 0x00, 0x34, 0x00, 0x00, 0x00, 
    0x50, 0x00, 0x00, 0x00, 0x01, 0x00, 0x00, 0x00, 0x00, 0x00, 0x00, 0x09, 0x68, 0x00, 0x00, 0x00, 
    0x04, 0x00, 0x00, 0x00, 0xff, 0xff, 0xff, 0xff, 0x31, 0x00, 0x00, 0x00, 0x28, 0x00, 0x00, 0x00, 
    0x01, 0x00, 0x00, 0x00, 0x0c, 0x00, 0x0c, 0x00, 0x00, 0x00, 0x00, 0x00, 0x08, 0x00, 0x04, 0x00, 
    0x0c, 0x00, 0x00, 0x00, 0x08, 0x00, 0x00, 0x00, 0x10, 0x00, 0x00, 0x00, 0x01, 0x00, 0x00, 0x00, 
    0xdd, 0xff, 0xff, 0xff, 0xff, 0xff, 0xff, 0xff, 0x01, 0x00, 0x00, 0x00, 0x71, 0x77, 0x22, 0x3d, 
    0x1e, 0x00, 0x00, 0x00, 0x73, 0x65, 0x72, 0x76, 0x69, 0x6e, 0x67, 0x5f, 0x64, 0x65, 0x66, 0x61, 
    0x75, 0x6c, 0x74, 0x5f, 0x6b, 0x65, 0x72, 0x61, 0x73, 0x5f, 0x74, 0x65, 0x6e, 0x73, 0x6f, 0x72, 
    0x3a, 0x30, 0x00, 0x00, 0x04, 0x00, 0x00, 0x00, 0x01, 0x00, 0x00, 0x00, 0x31, 0x00, 0x00, 0x00, 
    0x28, 0x00, 0x00, 0x00, 0x01, 0x00, 0x00, 0x00, 0x05, 0x00, 0x00, 0x00, 0x6c, 0x00, 0x00, 0x00, 
    0x54, 0x00, 0x00, 0x00, 0x38, 0x00, 0x00, 0x00, 0x18, 0x00, 0x00, 0x00, 0x04, 0x00, 0x00, 0x00, 
    0xb4, 0xff, 0xff, 0xff, 0x19, 0x00, 0x00, 0x00, 0x02, 0x00, 0x00, 0x00, 0x00, 0x00, 0x00, 0x19, 
    0xc4, 0xff, 0xff, 0xff, 0x09, 0x00, 0x00, 0x00, 0x04, 0x00, 0x00, 0x00, 0x00, 0x00, 0x00, 0x09, 
    0x0c, 0x00, 0x0e, 0x00, 0x0d, 0x00, 0x00, 0x00, 0x08, 0x00, 0x04, 0x00, 0x0c, 0x00, 0x00, 0x00, 
    0x28, 0x00, 0x00, 0x00, 0x02, 0x00, 0x00, 0x00, 0x00, 0x28, 0x0a, 0x00, 0x08, 0x00, 0x00, 0x00, 
    0x00, 0x00, 0x04, 0x00, 0x0a, 0x00, 0x00, 0x00, 0x02, 0x00, 0x00, 0x00, 0x0c, 0x00, 0x10, 0x00, 
    0x0f, 0x00, 0x00, 0x00, 0x08, 0x00, 0x04, 0x00, 0x0c, 0x00, 0x00, 0x00, 0x03, 0x00, 0x00, 0x00, 
    0x03, 0x00, 0x00, 0x00, 0x00, 0x00, 0x00, 0x03, 
};

const int g_kws_model_data_len = 11608;
